{
  "merges": [
    [
      "e",
      "</w>"
    ],
    [
      "s",
      "</w>"
    ],
    [
      "t",
      "h"
    ],
    [
      "t",
      "</w>"
    ],
    [
      "d",
      "</w>"
    ],
    [
      "i",
      "n"
    ],
    [
      "y",
      "</w>"
    ],
    [
      "e",
      "r"
    ],
    [
      "a",
      "n"
    ],
    [
      ".",
      "</w>"
    ],
    [
      "th",
      "e</w>"
    ],
    [
      "o",
      "</w>"
    ],
    [
      "o",
      "n"
    ],
    [
      ",",
      "</w>"
    ],
    [
      "o",
      "r"
    ],
    [
      "e",
      "n"
    ],
    [
      "o",
      "u"
    ],
    [
      "g",
      "</w>"
    ],
    [
      "a",
      "</w>"
    ],
    [
      "i",
      "s</w>"
    ],
    [
      "a",
      "r"
    ],
    [
      "a",
      "l"
    ],
    [
      "in",
      "g</w>"
    ],
    [
      "r",
      "e"
    ],
    [
      "f",
      "</w>"
    ],
    [
      "an",
      "d</w>"
    ],
    [
      "er",
      "</w>"
    ],
    [
      "e",
      "d</w>"
    ],
    [
      "i",
      "</w>"
    ],
    [
      "t",
      "o</w>"
    ],
    [
      "c",
      "h"
    ],
    [
      "s",
      "t"
    ],
    [
      "a",
      "t"
    ],
    [
      "a",
      "t</w>"
    ],
    [
      "'",
      "</w>"
    ],
    [
      "o",
      "f</w>"
    ],
    [
      "i",
      "t</w>"
    ],
    [
      "l",
      "</w>"
    ],
    [
      "on",
      "</w>"
    ],
    [
      "l",
      "y</w>"
    ],
    [
      "e",
      "s</w>"
    ],
    [
      "in",
      "</w>"
    ],
    [
      "o",
      "m"
    ],
    [
      "a",
      "s</w>"
    ],
    [
      "i",
      "l"
    ],
    [
      "or",
      "</w>"
    ],
    [
      "i",
      "c"
    ],
    [
      "s",
      "t</w>"
    ],
    [
      "i",
      "t"
    ],
    [
      "w",
      "h"
    ],
    [
      "a",
      "c"
    ],
    [
      "en",
      "</w>"
    ],
    [
      "m",
      "</w>"
    ],
    [
      "an",
      "</w>"
    ],
    [
      "v",
      "e</w>"
    ],
    [
      "th",
      "is</w>"
    ],
    [
      "o",
      "w"
    ],
    [
      "k",
      "</w>"
    ],
    [
      "e",
      "l"
    ],
    [
      "s",
      "h"
    ],
    [
      "th",
      "at</w>"
    ],
    [
      "-",
      "</w>"
    ],
    [
      "th",
      "e"
    ],
    [
      "b",
      "u"
    ],
    [
      "l",
      "i"
    ],
    [
      "h",
      "a"
    ],
    [
      "b",
      "e"
    ],
    [
      "o",
      "o"
    ],
    [
      "s",
      "e</w>"
    ],
    [
      "th",
      "</w>"
    ],
    [
      "n",
      "</w>"
    ],
    [
      "o",
      "v"
    ],
    [
      "l",
      "e</w>"
    ],
    [
      "d",
      "i"
    ],
    [
      "t",
      "i"
    ],
    [
      "o",
      "t</w>"
    ],
    [
      "w",
      "i"
    ],
    [
      "r",
      "i"
    ],
    [
      "g",
      "h"
    ],
    [
      "\"",
      "</w>"
    ],
    [
      "e",
      "v"
    ],
    [
      "y",
      "ou"
    ],
    [
      "f",
      "or</w>"
    ],
    [
      "m",
      "a"
    ],
    [
      "l",
      "e"
    ],
    [
      "r",
      "o"
    ],
    [
      "s",
      "e"
    ],
    [
      "s",
      "u"
    ],
    [
      "al",
      "</w>"
    ],
    [
      "a",
      "b"
    ],
    [
      "ch",
      "</w>"
    ],
    [
      "w",
      "as</w>"
    ],
    [
      "p",
      "</w>"
    ],
    [
      "k",
      "e</w>"
    ],
    [
      "bu",
      "t</w>"
    ],
    [
      "wi",
      "th</w>"
    ],
    [
      "a",
      "m"
    ],
    [
      "!",
      "</w>"
    ],
    [
      "i",
      "r"
    ],
    [
      "l",
      "a"
    ],
    [
      "you",
      "</w>"
    ],
    [
      "ou",
      "t</w>"
    ],
    [
      "u",
      "n"
    ],
    [
      "on",
      "e</w>"
    ],
    [
      "o",
      "l"
    ],
    [
      "er",
      "e</w>"
    ],
    [
      "d",
      "e"
    ],
    [
      "s",
      "i"
    ],
    [
      "ow",
      "</w>"
    ],
    [
      "n",
      "ot</w>"
    ],
    [
      "t",
      "s</w>"
    ],
    [
      "m",
      "ov"
    ],
    [
      "ar",
      "e</w>"
    ],
    [
      "u",
      "r"
    ],
    [
      "f",
      "il"
    ],
    [
      "c",
      "om"
    ],
    [
      "mov",
      "i"
    ],
    [
      "s",
      "o</w>"
    ],
    [
      "ha",
      "ve</w>"
    ],
    [
      "t",
      "a"
    ],
    [
      "r",
      "a"
    ],
    [
      ")",
      "</w>"
    ],
    [
      "p",
      "e"
    ],
    [
      "al",
      "ly</w>"
    ],
    [
      "e",
      "x"
    ],
    [
      "b",
      "e</w>"
    ],
    [
      "(",
      "</w>"
    ],
    [
      "s",
      "c"
    ],
    [
      "ou",
      "l"
    ],
    [
      "a",
      "y</w>"
    ],
    [
      "m",
      "e</w>"
    ],
    [
      "f",
      "e"
    ],
    [
      "al",
      "l</w>"
    ],
    [
      "t",
      "er</w>"
    ],
    [
      "en",
      "t</w>"
    ],
    [
      "m",
      "y</w>"
    ],
    [
      "a",
      "s"
    ],
    [
      "s",
      "om"
    ],
    [
      "movi",
      "e</w>"
    ],
    [
      "o",
      "p"
    ],
    [
      "c",
      "e</w>"
    ],
    [
      "g",
      "e"
    ],
    [
      "n",
      "e"
    ],
    [
      "oul",
      "d</w>"
    ],
    [
      "f",
      "r"
    ],
    [
      "th",
      "er</w>"
    ],
    [
      "er",
      "s</w>"
    ],
    [
      "fil",
      "m</w>"
    ],
    [
      "the",
      "y</w>"
    ],
    [
      "p",
      "t</w>"
    ],
    [
      "j",
      "u"
    ],
    [
      "l",
      "o"
    ],
    [
      "ar",
      "</w>"
    ],
    [
      "oo",
      "d</w>"
    ],
    [
      "li",
      "ke</w>"
    ],
    [
      "om",
      "</w>"
    ],
    [
      "or",
      "e</w>"
    ],
    [
      "p",
      "o"
    ],
    [
      "a",
      "g"
    ],
    [
      "c",
      "on"
    ],
    [
      "p",
      "ro"
    ],
    [
      "ac",
      "t"
    ],
    [
      "s",
      "s</w>"
    ],
    [
      "t",
      "r"
    ],
    [
      "c",
      "a"
    ],
    [
      "gh",
      "t</w>"
    ],
    [
      "h",
      "e</w>"
    ],
    [
      "v",
      "er"
    ],
    [
      "m",
      "o"
    ],
    [
      "at",
      "i"
    ],
    [
      "a",
      "d"
    ],
    [
      "w",
      "or"
    ],
    [
      "f",
      "u"
    ],
    [
      "il",
      "l</w>"
    ],
    [
      "a",
      "d</w>"
    ],
    [
      "ju",
      "st</w>"
    ],
    [
      "t",
      "o"
    ],
    [
      "ic",
      "</w>"
    ],
    [
      "w",
      "</w>"
    ],
    [
      "v",
      "i"
    ],
    [
      "d",
      "o"
    ],
    [
      "e",
      "m"
    ],
    [
      "p",
      "er"
    ],
    [
      "fr",
      "om</w>"
    ],
    [
      "q",
      "u"
    ],
    [
      "m",
      "u"
    ],
    [
      "th",
      "ing</w>"
    ],
    [
      "ch",
      "at"
    ],
    [
      "d",
      "e</w>"
    ],
    [
      "b",
      "y</w>"
    ],
    [
      "d",
      "s</w>"
    ],
    [
      "g",
      "pt</w>"
    ],
    [
      "#",
      "</w>"
    ],
    [
      "ou",
      "n"
    ],
    [
      "r",
      "</w>"
    ],
    [
      "i",
      "f</w>"
    ],
    [
      "h",
      "is</w>"
    ],
    [
      "b",
      "o"
    ],
    [
      "chat",
      "gpt</w>"
    ],
    [
      "s",
      "p"
    ],
    [
      "gh",
      "</w>"
    ],
    [
      "d",
      "u"
    ],
    [
      "?",
      "</w>"
    ],
    [
      "s",
      "a"
    ],
    [
      "c",
      "an</w>"
    ],
    [
      "t",
      "e"
    ],
    [
      "w",
      "e"
    ],
    [
      "\\",
      "</w>"
    ],
    [
      "p",
      "re"
    ],
    [
      "ev",
      "er</w>"
    ],
    [
      "f",
      "or"
    ],
    [
      "g",
      "re"
    ],
    [
      "u",
      "p</w>"
    ],
    [
      "k",
      "ing</w>"
    ],
    [
      "ab",
      "out</w>"
    ],
    [
      "t",
      "er"
    ],
    [
      "o",
      "f"
    ],
    [
      "g",
      "ood</w>"
    ],
    [
      "m",
      "i"
    ],
    [
      "wh",
      "o</w>"
    ],
    [
      "som",
      "e</w>"
    ],
    [
      "h",
      "i"
    ],
    [
      "p",
      "l"
    ],
    [
      "h",
      "as</w>"
    ],
    [
      "wh",
      "at</w>"
    ],
    [
      "th",
      "ere</w>"
    ],
    [
      "ver",
      "y</w>"
    ],
    [
      "g",
      "u"
    ],
    [
      "an",
      "y</w>"
    ],
    [
      "el",
      "l</w>"
    ],
    [
      "f",
      "in"
    ],
    [
      "m",
      "ore</w>"
    ],
    [
      "t",
      "ed</w>"
    ],
    [
      "m",
      "e"
    ],
    [
      "wh",
      "en</w>"
    ],
    [
      "at",
      "e</w>"
    ],
    [
      "p",
      "ar"
    ],
    [
      "h",
      "er</w>"
    ],
    [
      "s",
      "s"
    ],
    [
      "k",
      "s</w>"
    ],
    [
      "ir",
      "</w>"
    ],
    [
      "u",
      "se</w>"
    ],
    [
      "w",
      "ould</w>"
    ],
    [
      "c",
      "i"
    ],
    [
      "in",
      "g"
    ],
    [
      "ac",
      "k</w>"
    ],
    [
      "c",
      "t</w>"
    ],
    [
      "ou",
      "gh</w>"
    ],
    [
      "n",
      "ow</w>"
    ],
    [
      "w",
      "e</w>"
    ],
    [
      "w",
      "at"
    ],
    [
      "ge",
      "t</w>"
    ],
    [
      "o",
      "ther</w>"
    ],
    [
      "p",
      "p"
    ],
    [
      "n",
      "o</w>"
    ],
    [
      "ic",
      "e</w>"
    ],
    [
      "y",
      "s</w>"
    ],
    [
      "ti",
      "on</w>"
    ],
    [
      "t",
      "t"
    ],
    [
      "ou",
      "s</w>"
    ],
    [
      "w",
      "ill</w>"
    ],
    [
      ":",
      "</w>"
    ],
    [
      "w",
      "ay</w>"
    ],
    [
      "h",
      "e"
    ],
    [
      "sh",
      "e</w>"
    ],
    [
      "r",
      "e</w>"
    ],
    [
      "f",
      "a"
    ],
    [
      "i",
      "m"
    ],
    [
      "it",
      "e</w>"
    ],
    [
      "d",
      "er"
    ],
    [
      "u",
      "s"
    ],
    [
      "ch",
      "ar"
    ],
    [
      "0",
      "</w>"
    ],
    [
      "an",
      "t</w>"
    ],
    [
      "ow",
      "n</w>"
    ],
    [
      "ti",
      "me</w>"
    ],
    [
      "the",
      "m</w>"
    ],
    [
      "ab",
      "le</w>"
    ],
    [
      "it",
      "y</w>"
    ],
    [
      "ev",
      "en</w>"
    ],
    [
      "am",
      "e</w>"
    ],
    [
      "g",
      "i"
    ],
    [
      "re",
      "c"
    ],
    [
      "ha",
      "d</w>"
    ],
    [
      "n",
      "o"
    ],
    [
      "a",
      "p"
    ],
    [
      "en",
      "d</w>"
    ],
    [
      "i",
      "s"
    ],
    [
      "b",
      "l"
    ],
    [
      "j",
      "o"
    ],
    [
      "@",
      "</w>"
    ],
    [
      "ta",
      "st"
    ],
    [
      "re",
      "ally</w>"
    ],
    [
      "ati",
      "on</w>"
    ],
    [
      "st",
      "or"
    ],
    [
      "p",
      "la"
    ],
    [
      "on",
      "ly</w>"
    ],
    [
      "k",
      "e"
    ],
    [
      "g",
      "e</w>"
    ],
    [
      "u",
      "m"
    ],
    [
      "on",
      "s</w>"
    ],
    [
      "ev",
      "er"
    ],
    [
      "en",
      "t"
    ],
    [
      "on",
      "g</w>"
    ],
    [
      "sh",
      "</w>"
    ],
    [
      "a",
      "f"
    ],
    [
      "l",
      "oo"
    ],
    [
      "y",
      "e"
    ],
    [
      "som",
      "e"
    ],
    [
      "the",
      "ir</w>"
    ],
    [
      "*",
      "</w>"
    ],
    [
      "u",
      "l"
    ],
    [
      "y",
      "ing</w>"
    ],
    [
      "d",
      "on</w>"
    ],
    [
      "b",
      "r"
    ],
    [
      "w",
      "a"
    ],
    [
      "it",
      "s</w>"
    ],
    [
      "gre",
      "at</w>"
    ],
    [
      "mo",
      "st</w>"
    ],
    [
      "m",
      "in"
    ],
    [
      "wh",
      "i"
    ],
    [
      "the",
      "se</w>"
    ],
    [
      "oun",
      "d</w>"
    ],
    [
      "d",
      "o</w>"
    ],
    [
      "d",
      "er</w>"
    ],
    [
      "whi",
      "ch</w>"
    ],
    [
      "g",
      "o"
    ],
    [
      "t",
      "ur"
    ],
    [
      "p",
      "r"
    ],
    [
      "th",
      "an</w>"
    ],
    [
      "in",
      "k</w>"
    ],
    [
      "d",
      "ing</w>"
    ],
    [
      "w",
      "ell</w>"
    ],
    [
      "x",
      "</w>"
    ],
    [
      "it",
      "t"
    ],
    [
      "w",
      "ere</w>"
    ],
    [
      "h",
      "ow</w>"
    ],
    [
      "g",
      "r"
    ],
    [
      "k",
      "ed</w>"
    ],
    [
      "pro",
      "du"
    ],
    [
      "s",
      "pe"
    ],
    [
      "to",
      "o</w>"
    ],
    [
      "d",
      "r"
    ],
    [
      "mu",
      "ch</w>"
    ],
    [
      "ar",
      "d</w>"
    ],
    [
      "a",
      "m</w>"
    ],
    [
      "fu",
      "l</w>"
    ],
    [
      "s",
      "el"
    ],
    [
      "f",
      "ir"
    ],
    [
      "en",
      "ce</w>"
    ],
    [
      "be",
      "t"
    ],
    [
      "e",
      "l</w>"
    ],
    [
      "ca",
      "use</w>"
    ],
    [
      "c",
      "re"
    ],
    [
      "st",
      "r"
    ],
    [
      "se",
      "e</w>"
    ],
    [
      "t",
      "w"
    ],
    [
      "in",
      "e</w>"
    ],
    [
      "a",
      "u"
    ],
    [
      "m",
      "ar"
    ],
    [
      "ol",
      "d</w>"
    ],
    [
      "be",
      "en</w>"
    ],
    [
      "b",
      "</w>"
    ],
    [
      "d",
      "y</w>"
    ],
    [
      "e",
      "ly</w>"
    ],
    [
      "w",
      "r"
    ],
    [
      "b",
      "ad</w>"
    ],
    [
      "s",
      "er"
    ],
    [
      "stor",
      "y</w>"
    ],
    [
      "i",
      "d</w>"
    ],
    [
      "le",
      "a"
    ],
    [
      "be",
      "cause</w>"
    ],
    [
      "f",
      "i"
    ],
    [
      "al",
      "so</w>"
    ],
    [
      "c",
      "o"
    ],
    [
      ";",
      "</w>"
    ],
    [
      "d",
      "n</w>"
    ],
    [
      "th",
      "en</w>"
    ],
    [
      "b",
      "le</w>"
    ],
    [
      "ma",
      "ke</w>"
    ],
    [
      "c",
      "e"
    ],
    [
      "an",
      "y"
    ],
    [
      "ar",
      "s</w>"
    ],
    [
      "i",
      "es</w>"
    ],
    [
      "en",
      "ts</w>"
    ],
    [
      "th",
      "r"
    ],
    [
      "d",
      "ay</w>"
    ],
    [
      "el",
      "l"
    ],
    [
      "you",
      "r</w>"
    ],
    [
      "ov",
      "er</w>"
    ],
    [
      "d",
      "ed</w>"
    ],
    [
      "m",
      "s</w>"
    ],
    [
      "p",
      "s</w>"
    ],
    [
      "k",
      "es</w>"
    ],
    [
      "fir",
      "st</w>"
    ],
    [
      "sc",
      "en"
    ],
    [
      "al",
      "l"
    ],
    [
      "af",
      "ter</w>"
    ],
    [
      "at",
      "ed</w>"
    ],
    [
      "/",
      "</w>"
    ],
    [
      "f",
      "la"
    ],
    [
      "lo",
      "ve</w>"
    ],
    [
      "pe",
      "op"
    ],
    [
      "n",
      "i"
    ],
    [
      "b",
      "i"
    ],
    [
      "peop",
      "le</w>"
    ],
    [
      "p",
      "u"
    ],
    [
      "il",
      "l"
    ],
    [
      "in",
      "to</w>"
    ],
    [
      "ch",
      "e"
    ],
    [
      "p",
      "a"
    ],
    [
      "st",
      "u"
    ],
    [
      "ma",
      "de</w>"
    ],
    [
      "e",
      "st"
    ],
    [
      "m",
      "an</w>"
    ],
    [
      "th",
      "ink</w>"
    ],
    [
      "t",
      "ri"
    ],
    [
      "m",
      "an"
    ],
    [
      "a",
      "i</w>"
    ],
    [
      "vi",
      "e"
    ],
    [
      "ing",
      "s</w>"
    ],
    [
      "2",
      "</w>"
    ],
    [
      "l",
      "u"
    ],
    [
      "si",
      "on</w>"
    ],
    [
      "c",
      "ould</w>"
    ],
    [
      "i",
      "e"
    ],
    [
      "ou",
      "r</w>"
    ],
    [
      "c",
      "ar"
    ],
    [
      "v",
      "es</w>"
    ],
    [
      "m",
      "on"
    ],
    [
      "p",
      "h"
    ],
    [
      "u",
      "s</w>"
    ],
    [
      "o",
      "c"
    ],
    [
      "l",
      "l</w>"
    ],
    [
      "t",
      "ing</w>"
    ],
    [
      "t",
      "ra"
    ],
    [
      "com",
      "m"
    ],
    [
      "sel",
      "f</w>"
    ],
    [
      "f",
      "e</w>"
    ],
    [
      "ou",
      "ght</w>"
    ],
    [
      "com",
      "p"
    ],
    [
      "ac",
      "e</w>"
    ],
    [
      "v",
      "ing</w>"
    ],
    [
      "hi",
      "m</w>"
    ],
    [
      "tast",
      "e</w>"
    ],
    [
      "f",
      "f"
    ],
    [
      "ou",
      "r"
    ],
    [
      "or",
      "s</w>"
    ],
    [
      "po",
      "in"
    ],
    [
      "g",
      "o</w>"
    ],
    [
      "bet",
      "ter</w>"
    ],
    [
      "k",
      "now</w>"
    ],
    [
      "ag",
      "e</w>"
    ],
    [
      "il",
      "e</w>"
    ],
    [
      "ic",
      "k</w>"
    ],
    [
      "we",
      "e"
    ],
    [
      "wh",
      "ere</w>"
    ],
    [
      "fla",
      "v"
    ],
    [
      "n",
      "ing</w>"
    ],
    [
      "e",
      "s"
    ],
    [
      "st",
      "e"
    ],
    [
      "in",
      "ter"
    ],
    [
      "di",
      "d</w>"
    ],
    [
      "&",
      "</w>"
    ],
    [
      "u",
      "t"
    ],
    [
      "itt",
      "le</w>"
    ],
    [
      "h",
      "ere</w>"
    ],
    [
      "c",
      "r"
    ],
    [
      "l",
      "ittle</w>"
    ],
    [
      "ov",
      "er"
    ],
    [
      "a",
      "in</w>"
    ],
    [
      "n",
      "ever</w>"
    ],
    [
      "f",
      "ri"
    ],
    [
      "b",
      "ack</w>"
    ],
    [
      "ne",
      "w</w>"
    ],
    [
      "be",
      "st</w>"
    ],
    [
      "tw",
      "o</w>"
    ],
    [
      "t",
      "en"
    ],
    [
      "it",
      "i"
    ],
    [
      "s",
      "m"
    ],
    [
      "di",
      "rec"
    ],
    [
      "of",
      "f</w>"
    ],
    [
      "s",
      "o"
    ],
    [
      "wor",
      "k</w>"
    ],
    [
      "al",
      "i"
    ],
    [
      "p",
      "or"
    ],
    [
      "produ",
      "ct</w>"
    ],
    [
      "at",
      "ing</w>"
    ],
    [
      "th",
      "ough</w>"
    ],
    [
      "m",
      "any</w>"
    ],
    [
      "g",
      "in"
    ],
    [
      "f",
      "re"
    ],
    [
      "s",
      "in"
    ],
    [
      "h",
      "or"
    ],
    [
      "wat",
      "ch"
    ],
    [
      "st",
      "ill</w>"
    ],
    [
      "3",
      "</w>"
    ],
    [
      "po",
      "s"
    ],
    [
      "an",
      "s</w>"
    ],
    [
      "s",
      "on</w>"
    ],
    [
      "st",
      "ar"
    ],
    [
      "some",
      "thing</w>"
    ],
    [
      "1",
      "</w>"
    ],
    [
      "re",
      "d</w>"
    ],
    [
      "d",
      "a"
    ],
    [
      "be",
      "ing</w>"
    ],
    [
      "c",
      "k</w>"
    ],
    [
      "ha",
      "pp"
    ],
    [
      "c",
      "of"
    ],
    [
      "le",
      "ss</w>"
    ],
    [
      "g",
      "en"
    ],
    [
      "pro",
      "b"
    ],
    [
      "tr",
      "u"
    ],
    [
      "c",
      "u"
    ],
    [
      "cof",
      "fe"
    ],
    [
      "p",
      "ri"
    ],
    [
      "t",
      "y</w>"
    ],
    [
      "do",
      "es</w>"
    ],
    [
      "h",
      "</w>"
    ],
    [
      "ever",
      "y"
    ],
    [
      "5",
      "</w>"
    ],
    [
      "c",
      "es</w>"
    ],
    [
      "su",
      "r"
    ],
    [
      "e",
      "f"
    ],
    [
      "ic",
      "al</w>"
    ],
    [
      "t",
      "re"
    ],
    [
      "ac",
      "k"
    ],
    [
      "ac",
      "t</w>"
    ],
    [
      "ar",
      "y</w>"
    ],
    [
      "an",
      "d"
    ],
    [
      "movi",
      "es</w>"
    ],
    [
      "m",
      "ent</w>"
    ],
    [
      "b",
      "el"
    ],
    [
      "an",
      "ce</w>"
    ],
    [
      "sh",
      "i"
    ],
    [
      "coffe",
      "e</w>"
    ],
    [
      "g",
      "ot</w>"
    ],
    [
      "wat",
      "ch</w>"
    ],
    [
      "u",
      "ally</w>"
    ],
    [
      "b",
      "a"
    ],
    [
      "a",
      "ma"
    ],
    [
      "o",
      "se</w>"
    ],
    [
      "tr",
      "y</w>"
    ],
    [
      "ag",
      "ain</w>"
    ],
    [
      "f",
      "l"
    ],
    [
      "ic",
      "i"
    ],
    [
      "ama",
      "z"
    ],
    [
      "fin",
      "d</w>"
    ],
    [
      "ti",
      "m"
    ],
    [
      "di",
      "dn</w>"
    ],
    [
      "wh",
      "ile</w>"
    ],
    [
      "com",
      "e</w>"
    ],
    [
      "e",
      "ss</w>"
    ],
    [
      "spe",
      "ci"
    ],
    [
      "v",
      "ed</w>"
    ],
    [
      "ta",
      "in"
    ],
    [
      "sh",
      "ow</w>"
    ],
    [
      "s",
      "ay</w>"
    ],
    [
      "sh",
      "ould</w>"
    ],
    [
      "i",
      "l</w>"
    ],
    [
      "ol",
      "l"
    ],
    [
      "or",
      "i"
    ],
    [
      "wh",
      "y</w>"
    ],
    [
      "fil",
      "ms</w>"
    ],
    [
      "sc",
      "ri"
    ],
    [
      "k",
      "i"
    ],
    [
      "g",
      "ra"
    ],
    [
      "r",
      "u"
    ],
    [
      "e",
      "a"
    ],
    [
      "char",
      "act"
    ],
    [
      "ur",
      "e</w>"
    ],
    [
      "f",
      "un"
    ],
    [
      "act",
      "ing</w>"
    ],
    [
      "char",
      "ac"
    ],
    [
      "charac",
      "ter</w>"
    ],
    [
      "h",
      "el"
    ],
    [
      "vie",
      "w"
    ],
    [
      "w",
      "ant</w>"
    ],
    [
      "li",
      "fe</w>"
    ],
    [
      "be",
      "f"
    ],
    [
      "do",
      "es"
    ],
    [
      "bef",
      "ore</w>"
    ],
    [
      "se",
      "en</w>"
    ],
    [
      "d",
      "el"
    ],
    [
      "n",
      "y</w>"
    ],
    [
      "re",
      "al</w>"
    ],
    [
      "c",
      "er"
    ],
    [
      "fe",
      "w</w>"
    ],
    [
      "an",
      "g"
    ],
    [
      "charact",
      "ers</w>"
    ],
    [
      "se",
      "em"
    ],
    [
      "f",
      "ood</w>"
    ],
    [
      "b",
      "re"
    ],
    [
      "does",
      "n</w>"
    ],
    [
      "pl",
      "ot</w>"
    ],
    [
      "ou",
      "s"
    ],
    [
      "e",
      "i"
    ],
    [
      "wi",
      "th"
    ],
    [
      "p",
      "le</w>"
    ],
    [
      "r",
      "y</w>"
    ],
    [
      "t",
      "or</w>"
    ],
    [
      "ri",
      "ght</w>"
    ],
    [
      "y",
      "ed</w>"
    ],
    [
      "h",
      "um"
    ],
    [
      "us",
      "ed</w>"
    ],
    [
      "s",
      "ame</w>"
    ],
    [
      "t",
      "al"
    ],
    [
      "e",
      "d"
    ],
    [
      "tt",
      "y</w>"
    ],
    [
      "wa",
      "ys</w>"
    ],
    [
      "tur",
      "e</w>"
    ],
    [
      "t",
      "e</w>"
    ],
    [
      "di",
      "ff"
    ],
    [
      "go",
      "ing</w>"
    ],
    [
      "se",
      "e"
    ],
    [
      "flav",
      "or</w>"
    ],
    [
      "oo",
      "k</w>"
    ],
    [
      "th",
      "ose</w>"
    ],
    [
      "e",
      "y</w>"
    ],
    [
      "k",
      "in"
    ],
    [
      "s",
      "y"
    ],
    [
      "act",
      "ually</w>"
    ],
    [
      "c",
      "or"
    ],
    [
      "l",
      "es</w>"
    ],
    [
      "at",
      "s</w>"
    ],
    [
      "su",
      "ch</w>"
    ],
    [
      "o",
      "b"
    ],
    [
      "ow",
      "s</w>"
    ],
    [
      "f",
      "f</w>"
    ],
    [
      "e",
      "st</w>"
    ],
    [
      "b",
      "er"
    ],
    [
      "en",
      "jo"
    ],
    [
      "l",
      "ov"
    ],
    [
      "en",
      "ti"
    ],
    [
      "c",
      "la"
    ],
    [
      "e",
      "t</w>"
    ],
    [
      "ab",
      "ly</w>"
    ],
    [
      "thr",
      "ough</w>"
    ],
    [
      "op",
      "en"
    ],
    [
      "d",
      "ic"
    ],
    [
      "w",
      "on"
    ],
    [
      "ar",
      "ly</w>"
    ],
    [
      "con",
      "t"
    ],
    [
      "an",
      "other</w>"
    ],
    [
      "e",
      "p"
    ],
    [
      "si",
      "m"
    ],
    [
      "ex",
      "c"
    ],
    [
      "l",
      "ot</w>"
    ],
    [
      "sin",
      "ce</w>"
    ],
    [
      "c",
      "</w>"
    ],
    [
      "b",
      "er</w>"
    ],
    [
      "t",
      "ly</w>"
    ],
    [
      "n",
      "ed</w>"
    ],
    [
      "tim",
      "es</w>"
    ],
    [
      "su",
      "b"
    ],
    [
      "s",
      "en"
    ],
    [
      "d",
      "own</w>"
    ],
    [
      "oo",
      "l</w>"
    ],
    [
      "c",
      "ol"
    ],
    [
      "fe",
      "c"
    ],
    [
      "loo",
      "k</w>"
    ],
    [
      "re",
      "ad"
    ],
    [
      "f",
      "am"
    ],
    [
      "th",
      "ought</w>"
    ],
    [
      "su",
      "re</w>"
    ],
    [
      "ye",
      "ars</w>"
    ],
    [
      "4",
      "</w>"
    ],
    [
      "j",
      "e"
    ],
    [
      "1",
      "9"
    ],
    [
      "ever",
      "y</w>"
    ],
    [
      "ma",
      "kes</w>"
    ],
    [
      "ta",
      "ke</w>"
    ],
    [
      "gi",
      "ve</w>"
    ],
    [
      "no",
      "thing</w>"
    ],
    [
      "i",
      "ly</w>"
    ],
    [
      "ic",
      "k"
    ],
    [
      "par",
      "t</w>"
    ],
    [
      "c",
      "an"
    ],
    [
      "e",
      "p</w>"
    ],
    [
      "at",
      "t"
    ],
    [
      "o",
      "le</w>"
    ],
    [
      "h",
      "ow"
    ],
    [
      "watch",
      "ing</w>"
    ],
    [
      "pre",
      "tty</w>"
    ],
    [
      "am",
      "er"
    ],
    [
      "b",
      "as"
    ],
    [
      "th",
      "ings</w>"
    ],
    [
      "scen",
      "e</w>"
    ],
    [
      "y",
      "p"
    ],
    [
      "t",
      "ic"
    ],
    [
      "ar",
      "ound</w>"
    ],
    [
      "si",
      "de</w>"
    ],
    [
      "f",
      "t</w>"
    ],
    [
      "l",
      "ong</w>"
    ],
    [
      "g",
      "ir"
    ],
    [
      "mu",
      "s"
    ],
    [
      "produ",
      "c"
    ],
    [
      "scen",
      "es</w>"
    ],
    [
      "diff",
      "er"
    ],
    [
      "1",
      "0</w>"
    ],
    [
      "a",
      "w"
    ],
    [
      "s",
      "ol"
    ],
    [
      "c",
      "ra"
    ],
    [
      "ex",
      "pe"
    ],
    [
      "m",
      "at"
    ],
    [
      "r",
      "or</w>"
    ],
    [
      "tt",
      "ing</w>"
    ],
    [
      "per",
      "for"
    ],
    [
      "with",
      "out</w>"
    ],
    [
      "a",
      "way</w>"
    ],
    [
      "ous",
      "ly</w>"
    ],
    [
      "wor",
      "l"
    ],
    [
      "st",
      "er"
    ],
    [
      "m",
      "em"
    ],
    [
      "di",
      "sa"
    ],
    [
      "f",
      "ound</w>"
    ],
    [
      "p",
      "ur"
    ],
    [
      "it",
      "ing</w>"
    ],
    [
      "on",
      "al</w>"
    ],
    [
      "s",
      "or"
    ],
    [
      "v",
      "en</w>"
    ],
    [
      "tri",
      "ed</w>"
    ],
    [
      "w",
      "an"
    ],
    [
      "z",
      "e</w>"
    ],
    [
      "en",
      "ough</w>"
    ],
    [
      "sc",
      "re"
    ],
    [
      "te",
      "ly</w>"
    ],
    [
      "oul",
      "dn</w>"
    ],
    [
      "te",
      "a</w>"
    ],
    [
      "comp",
      "le"
    ],
    [
      "al",
      "ways</w>"
    ],
    [
      "in",
      "c"
    ],
    [
      "min",
      "ut"
    ],
    [
      "b",
      "it</w>"
    ],
    [
      "al",
      "ity</w>"
    ],
    [
      "al",
      "most</w>"
    ],
    [
      "n",
      "er</w>"
    ],
    [
      "b",
      "ar"
    ],
    [
      "i",
      "de"
    ],
    [
      "th",
      "re"
    ],
    [
      "ati",
      "ons</w>"
    ],
    [
      "wh",
      "ole</w>"
    ],
    [
      "worl",
      "d</w>"
    ],
    [
      "how",
      "ever</w>"
    ],
    [
      "bo",
      "th</w>"
    ],
    [
      "w",
      "om"
    ],
    [
      "qu",
      "ite</w>"
    ],
    [
      "s",
      "al"
    ],
    [
      "w",
      "ar"
    ],
    [
      "re",
      "as"
    ],
    [
      "g",
      "s</w>"
    ],
    [
      "n",
      "u"
    ],
    [
      "re",
      "comm"
    ],
    [
      "any",
      "thing</w>"
    ],
    [
      "inter",
      "est"
    ],
    [
      "bu",
      "y</w>"
    ],
    [
      "ss",
      "ed</w>"
    ],
    [
      "b",
      "or"
    ],
    [
      "fun",
      "ny</w>"
    ],
    [
      "f",
      "ar</w>"
    ],
    [
      "us",
      "ing</w>"
    ],
    [
      "al",
      "s</w>"
    ],
    [
      "ch",
      "a"
    ],
    [
      "l",
      "ine</w>"
    ],
    [
      "fu",
      "l"
    ],
    [
      "per",
      "i"
    ],
    [
      "st",
      "s</w>"
    ],
    [
      "lo",
      "c"
    ],
    [
      "la",
      "st</w>"
    ],
    [
      "ma",
      "y</w>"
    ],
    [
      "p",
      "ow"
    ],
    [
      "g",
      "er</w>"
    ],
    [
      "h",
      "om"
    ],
    [
      "pu",
      "t</w>"
    ],
    [
      "un",
      "der"
    ],
    [
      "h",
      "er"
    ],
    [
      "you",
      "n"
    ],
    [
      "bi",
      "g</w>"
    ],
    [
      "ic",
      "ally</w>"
    ],
    [
      "in",
      "t"
    ],
    [
      "a",
      "v"
    ],
    [
      "amaz",
      "on</w>"
    ],
    [
      "c",
      "lo"
    ],
    [
      "le",
      "t</w>"
    ],
    [
      "seem",
      "s</w>"
    ],
    [
      "i",
      "ous</w>"
    ],
    [
      "en",
      "ds</w>"
    ],
    [
      "ne",
      "ss</w>"
    ],
    [
      "s",
      "wee"
    ],
    [
      "l",
      "at"
    ],
    [
      "h",
      "ard</w>"
    ],
    [
      "ac",
      "tion</w>"
    ],
    [
      "act",
      "ors</w>"
    ],
    [
      "m",
      "or"
    ],
    [
      "disa",
      "p"
    ],
    [
      "ne",
      "ed</w>"
    ],
    [
      "hor",
      "ror</w>"
    ],
    [
      "k",
      "n"
    ],
    [
      "su",
      "g"
    ],
    [
      "in",
      "v"
    ],
    [
      "f",
      "act</w>"
    ],
    [
      "h",
      "o"
    ],
    [
      "do",
      "g</w>"
    ],
    [
      "y",
      "es</w>"
    ],
    [
      "st",
      "er</w>"
    ],
    [
      "perfor",
      "man"
    ],
    [
      "d",
      "es</w>"
    ],
    [
      "tr",
      "ying</w>"
    ],
    [
      "m",
      "il"
    ],
    [
      "ex",
      "t</w>"
    ],
    [
      "v",
      "e"
    ],
    [
      "fe",
      "el</w>"
    ],
    [
      "re",
      "l"
    ],
    [
      "ma",
      "y"
    ],
    [
      "ri",
      "ble</w>"
    ],
    [
      "la",
      "u"
    ],
    [
      "k",
      "ill"
    ],
    [
      "an",
      "ge</w>"
    ],
    [
      "re",
      "s</w>"
    ],
    [
      "p",
      "ic"
    ],
    [
      "s",
      "ch"
    ],
    [
      "su",
      "p"
    ],
    [
      "ca",
      "st</w>"
    ],
    [
      "ch",
      "il"
    ],
    [
      "ye",
      "ar</w>"
    ],
    [
      "loo",
      "king</w>"
    ],
    [
      "t",
      "u"
    ],
    [
      "t",
      "en</w>"
    ],
    [
      "of",
      "f"
    ],
    [
      "fu",
      "n</w>"
    ],
    [
      "pre",
      "s"
    ],
    [
      "mi",
      "ght</w>"
    ],
    [
      "ow",
      "ing</w>"
    ],
    [
      "en",
      "g"
    ],
    [
      "t",
      "un"
    ],
    [
      "m",
      "y"
    ],
    [
      "fe",
      "ct</w>"
    ],
    [
      "e",
      "at</w>"
    ],
    [
      "c",
      "ur"
    ],
    [
      "c",
      "oun"
    ],
    [
      "at",
      "ely</w>"
    ],
    [
      "ori",
      "gin"
    ],
    [
      "com",
      "es</w>"
    ],
    [
      "direc",
      "tor</w>"
    ],
    [
      "h",
      "op"
    ],
    [
      "h",
      "ar"
    ],
    [
      "ge",
      "ts</w>"
    ],
    [
      "gen",
      "er"
    ],
    [
      "pl",
      "ace</w>"
    ],
    [
      "n",
      "a"
    ],
    [
      "com",
      "e"
    ],
    [
      "l",
      "in"
    ],
    [
      "d",
      "d"
    ],
    [
      "differ",
      "ent</w>"
    ],
    [
      "d",
      "one</w>"
    ],
    [
      "c",
      "le"
    ],
    [
      "a",
      "k</w>"
    ],
    [
      "z",
      "</w>"
    ],
    [
      "mu",
      "st</w>"
    ],
    [
      "lea",
      "st</w>"
    ],
    [
      "l",
      "ow</w>"
    ],
    [
      "is",
      "n</w>"
    ],
    [
      "p",
      "i"
    ],
    [
      "th",
      "an"
    ],
    [
      "s",
      "ed</w>"
    ],
    [
      "sur",
      "pri"
    ],
    [
      "st",
      "ic</w>"
    ],
    [
      "ea",
      "ch</w>"
    ],
    [
      "der",
      "ed</w>"
    ],
    [
      "ap",
      "pe"
    ],
    [
      "n",
      "ice</w>"
    ],
    [
      "v",
      "</w>"
    ],
    [
      "ent",
      "ly</w>"
    ],
    [
      "ful",
      "ly</w>"
    ],
    [
      "stu",
      "ff</w>"
    ],
    [
      "d",
      "ar"
    ],
    [
      "ati",
      "ve</w>"
    ],
    [
      "b",
      "ro"
    ],
    [
      "prob",
      "le"
    ],
    [
      "disap",
      "poin"
    ],
    [
      "ch",
      "i"
    ],
    [
      "l",
      "ed</w>"
    ],
    [
      "h",
      "al"
    ],
    [
      "kin",
      "d</w>"
    ],
    [
      "prob",
      "ably</w>"
    ],
    [
      "sa",
      "id</w>"
    ],
    [
      "minut",
      "es</w>"
    ],
    [
      "t",
      "yp"
    ],
    [
      "st",
      "ed</w>"
    ],
    [
      "en",
      "d"
    ],
    [
      "youn",
      "g</w>"
    ],
    [
      "an",
      "s"
    ],
    [
      "h",
      "ou"
    ],
    [
      "8",
      "</w>"
    ],
    [
      "si",
      "ve</w>"
    ],
    [
      "may",
      "be</w>"
    ],
    [
      "g",
      "a"
    ],
    [
      "ti",
      "ve</w>"
    ],
    [
      "l",
      "ing</w>"
    ],
    [
      "c",
      "in"
    ],
    [
      "pr",
      "ov"
    ],
    [
      "c",
      "ou"
    ],
    [
      "scri",
      "pt</w>"
    ],
    [
      "ti",
      "ons</w>"
    ],
    [
      "g",
      "ar"
    ],
    [
      "p",
      "ie"
    ],
    [
      "sa",
      "w</w>"
    ],
    [
      "fa",
      "v"
    ],
    [
      "won",
      "der"
    ],
    [
      "poin",
      "t</w>"
    ],
    [
      "re",
      "ad</w>"
    ],
    [
      "any",
      "one</w>"
    ],
    [
      "c",
      "our"
    ],
    [
      "d",
      "ev"
    ],
    [
      "di",
      "s"
    ],
    [
      "or",
      "der</w>"
    ],
    [
      "n",
      "s</w>"
    ],
    [
      "6",
      "</w>"
    ],
    [
      "hi",
      "gh</w>"
    ],
    [
      "el",
      "s</w>"
    ],
    [
      "ma",
      "king</w>"
    ],
    [
      "n",
      "at"
    ],
    [
      "ye",
      "t</w>"
    ],
    [
      "st",
      "an"
    ],
    [
      "st",
      "a"
    ],
    [
      "mus",
      "ic</w>"
    ],
    [
      "e",
      "ar"
    ],
    [
      "c",
      "ame</w>"
    ],
    [
      "vie",
      "w</w>"
    ],
    [
      "k",
      "y</w>"
    ],
    [
      "u",
      "p"
    ],
    [
      "k",
      "er</w>"
    ],
    [
      "de",
      "fin"
    ],
    [
      "bel",
      "ie"
    ],
    [
      "wor",
      "st</w>"
    ],
    [
      "ni",
      "ght</w>"
    ],
    [
      "t",
      "ic</w>"
    ],
    [
      "f",
      "oll"
    ],
    [
      "l",
      "ar"
    ],
    [
      "se",
      "con"
    ],
    [
      "c",
      "oo"
    ],
    [
      "speci",
      "ally</w>"
    ],
    [
      "th",
      "er"
    ],
    [
      "hel",
      "p</w>"
    ],
    [
      "interest",
      "ing</w>"
    ],
    [
      "da",
      "ys</w>"
    ],
    [
      "ro",
      "le</w>"
    ],
    [
      "loo",
      "ks</w>"
    ],
    [
      "ma",
      "g"
    ],
    [
      "u",
      "su"
    ],
    [
      "ha",
      "ving</w>"
    ],
    [
      "bo",
      "x</w>"
    ],
    [
      "w",
      "as"
    ],
    [
      "u",
      "e</w>"
    ],
    [
      "bl",
      "ack</w>"
    ],
    [
      "ch",
      "oc"
    ],
    [
      "mon",
      "ey</w>"
    ],
    [
      "pr",
      "ice</w>"
    ],
    [
      "con",
      "si"
    ],
    [
      "ef",
      "fec"
    ],
    [
      "e",
      "specially</w>"
    ],
    [
      "\u2019",
      "</w>"
    ],
    [
      "wat",
      "er</w>"
    ],
    [
      "be",
      "au"
    ],
    [
      "re",
      "view"
    ],
    [
      "d",
      "re"
    ],
    [
      "fam",
      "ily</w>"
    ],
    [
      "origin",
      "al</w>"
    ],
    [
      "every",
      "thing</w>"
    ],
    [
      "di",
      "sc"
    ],
    [
      "sm",
      "all</w>"
    ],
    [
      "de",
      "ci"
    ],
    [
      "wor",
      "th</w>"
    ],
    [
      "hou",
      "se</w>"
    ],
    [
      "il",
      "li"
    ],
    [
      "i",
      "on</w>"
    ],
    [
      "$",
      "</w>"
    ],
    [
      "on",
      "ce</w>"
    ],
    [
      "shi",
      "p</w>"
    ],
    [
      "ar",
      "t</w>"
    ],
    [
      "se",
      "ar"
    ],
    [
      "g",
      "oo"
    ],
    [
      "thre",
      "e</w>"
    ],
    [
      "n",
      "ext</w>"
    ],
    [
      "we",
      "en</w>"
    ],
    [
      "ing",
      "ly</w>"
    ],
    [
      "al",
      "though</w>"
    ],
    [
      "del",
      "i"
    ],
    [
      "re",
      "ali"
    ],
    [
      "bet",
      "ween</w>"
    ],
    [
      "at",
      "es</w>"
    ],
    [
      "g",
      "y</w>"
    ],
    [
      "fri",
      "end</w>"
    ],
    [
      "s",
      "ing</w>"
    ],
    [
      "choc",
      "ol"
    ],
    [
      "th",
      "y</w>"
    ],
    [
      "on",
      "es</w>"
    ],
    [
      "read",
      "y</w>"
    ],
    [
      "d",
      "ri"
    ],
    [
      "an",
      "e</w>"
    ],
    [
      "p",
      "ol"
    ],
    [
      "as",
      "ed</w>"
    ],
    [
      "recomm",
      "end</w>"
    ],
    [
      "v",
      "o"
    ],
    [
      "come",
      "dy</w>"
    ],
    [
      "0",
      "0</w>"
    ],
    [
      "tru",
      "e</w>"
    ],
    [
      "expe",
      "c"
    ],
    [
      "b",
      "ought</w>"
    ],
    [
      "e",
      "t"
    ],
    [
      "el",
      "se</w>"
    ],
    [
      "hom",
      "e</w>"
    ],
    [
      "some",
      "one</w>"
    ],
    [
      "l",
      "s</w>"
    ],
    [
      "in",
      "s</w>"
    ],
    [
      "reas",
      "on</w>"
    ],
    [
      "th",
      "ers</w>"
    ],
    [
      "al",
      "e</w>"
    ],
    [
      "bo",
      "dy</w>"
    ],
    [
      "en",
      "ter"
    ],
    [
      "9",
      "</w>"
    ],
    [
      "ke",
      "ep</w>"
    ],
    [
      "fu",
      "ll</w>"
    ],
    [
      "hal",
      "f</w>"
    ],
    [
      "in",
      "ste"
    ],
    [
      "c",
      "li"
    ],
    [
      "inste",
      "ad</w>"
    ],
    [
      "belie",
      "ve</w>"
    ],
    [
      "enjo",
      "y</w>"
    ],
    [
      "cour",
      "se</w>"
    ],
    [
      "u",
      "</w>"
    ],
    [
      "le",
      "ft</w>"
    ],
    [
      "su",
      "c"
    ],
    [
      "si",
      "ble</w>"
    ],
    [
      "se",
      "qu"
    ],
    [
      "ne",
      "e"
    ],
    [
      "se",
      "t</w>"
    ],
    [
      "pla",
      "yed</w>"
    ],
    [
      "hi",
      "gh"
    ],
    [
      "open",
      "ai</w>"
    ],
    [
      "lea",
      "se</w>"
    ],
    [
      "amer",
      "ic"
    ],
    [
      "c",
      "ed</w>"
    ],
    [
      "it",
      "ed</w>"
    ],
    [
      "st",
      "and</w>"
    ],
    [
      "gir",
      "l</w>"
    ],
    [
      "happ",
      "y</w>"
    ],
    [
      "was",
      "n</w>"
    ],
    [
      "d",
      "ra"
    ],
    [
      "o",
      "h</w>"
    ],
    [
      "ba",
      "g</w>"
    ],
    [
      "every",
      "one</w>"
    ],
    [
      "s",
      "on"
    ],
    [
      "7",
      "</w>"
    ],
    [
      "g",
      "an"
    ],
    [
      "go",
      "es</w>"
    ],
    [
      "m",
      "om"
    ],
    [
      "sh",
      "ed</w>"
    ],
    [
      "b",
      "ly</w>"
    ],
    [
      "g",
      "g"
    ],
    [
      "w",
      "al"
    ],
    [
      "ex",
      "p"
    ],
    [
      "happ",
      "en"
    ],
    [
      "ar",
      "ti"
    ],
    [
      "in",
      "king</w>"
    ],
    [
      "su",
      "per"
    ],
    [
      "n",
      "a</w>"
    ],
    [
      "ou",
      "t"
    ],
    [
      "fav",
      "or"
    ],
    [
      "fri",
      "ends</w>"
    ],
    [
      "do",
      "c"
    ],
    [
      "ge",
      "tting</w>"
    ],
    [
      "gu",
      "y</w>"
    ],
    [
      "ra",
      "ther</w>"
    ],
    [
      "pla",
      "y</w>"
    ],
    [
      "ri",
      "st"
    ],
    [
      "iti",
      "on</w>"
    ],
    [
      "exc",
      "ell"
    ],
    [
      "per",
      "fect</w>"
    ],
    [
      "ca",
      "se</w>"
    ],
    [
      "ide",
      "a</w>"
    ],
    [
      "ex",
      "ce"
    ],
    [
      "chocol",
      "ate</w>"
    ],
    [
      "l",
      "an"
    ],
    [
      "e",
      "se</w>"
    ],
    [
      "en",
      "ding</w>"
    ],
    [
      "act",
      "or</w>"
    ],
    [
      "ex",
      "peri"
    ],
    [
      "d",
      "ly</w>"
    ],
    [
      "si",
      "g"
    ],
    [
      "sh",
      "or"
    ],
    [
      "jo",
      "b</w>"
    ],
    [
      "sim",
      "p"
    ],
    [
      "to",
      "ge"
    ],
    [
      "he",
      "ad</w>"
    ],
    [
      "see",
      "m</w>"
    ],
    [
      "ti",
      "l</w>"
    ],
    [
      "tur",
      "n</w>"
    ],
    [
      "a",
      "ch"
    ],
    [
      "w",
      "in"
    ],
    [
      "t",
      "v</w>"
    ],
    [
      "toge",
      "ther</w>"
    ],
    [
      "bre",
      "a"
    ],
    [
      "gu",
      "e</w>"
    ],
    [
      "f",
      "an"
    ],
    [
      "wom",
      "an</w>"
    ],
    [
      "su",
      "l"
    ],
    [
      "i",
      "ght</w>"
    ],
    [
      "w",
      "on</w>"
    ],
    [
      "ei",
      "ther</w>"
    ],
    [
      "ur",
      "ing</w>"
    ],
    [
      "m",
      "ing</w>"
    ],
    [
      "excell",
      "ent</w>"
    ],
    [
      "to",
      "t"
    ],
    [
      "c",
      "all"
    ],
    [
      "s",
      "po"
    ],
    [
      "le",
      "ar"
    ],
    [
      "con",
      "v"
    ],
    [
      "p",
      "ac"
    ],
    [
      "he",
      "al"
    ],
    [
      "wr",
      "ong</w>"
    ],
    [
      "b",
      "ra"
    ],
    [
      "qu",
      "est"
    ],
    [
      "wr",
      "ite</w>"
    ],
    [
      "h",
      "u"
    ],
    [
      "li",
      "ght</w>"
    ],
    [
      "b",
      "s</w>"
    ],
    [
      "ne",
      "y</w>"
    ],
    [
      "di",
      "al"
    ],
    [
      "p",
      "ack"
    ],
    [
      "ver",
      "sion</w>"
    ],
    [
      "ou",
      "gh"
    ],
    [
      "pr",
      "om"
    ],
    [
      "ser",
      "ies</w>"
    ],
    [
      "n",
      "am"
    ],
    [
      "2",
      "0"
    ],
    [
      "p",
      "as"
    ],
    [
      "swee",
      "t</w>"
    ],
    [
      "m",
      "en"
    ],
    [
      "st",
      "ing</w>"
    ],
    [
      "dr",
      "am"
    ],
    [
      "fre",
      "e</w>"
    ],
    [
      "st",
      "ore</w>"
    ],
    [
      "secon",
      "d</w>"
    ],
    [
      "bu",
      "d"
    ],
    [
      "z",
      "ed</w>"
    ],
    [
      "it",
      "ely</w>"
    ],
    [
      "l",
      "on"
    ],
    [
      "to",
      "p</w>"
    ],
    [
      "o",
      "p</w>"
    ],
    [
      "n",
      "or"
    ],
    [
      "in",
      "gre"
    ],
    [
      "un",
      "til</w>"
    ],
    [
      "c",
      "up</w>"
    ],
    [
      "c",
      "ent</w>"
    ],
    [
      "ca",
      "p"
    ],
    [
      "ingre",
      "di"
    ],
    [
      "ic",
      "s</w>"
    ],
    [
      "k",
      "en</w>"
    ],
    [
      "s",
      "n"
    ],
    [
      "for",
      "m"
    ],
    [
      "ob",
      "vi"
    ],
    [
      "mem",
      "ber</w>"
    ],
    [
      "b",
      "ook</w>"
    ],
    [
      "inc",
      "lu"
    ],
    [
      "comp",
      "any</w>"
    ],
    [
      "ab",
      "sol"
    ],
    [
      "wonder",
      "ful</w>"
    ],
    [
      "sug",
      "ar</w>"
    ],
    [
      "p",
      "op"
    ],
    [
      "d",
      "a</w>"
    ],
    [
      "hi",
      "m"
    ],
    [
      "wr",
      "it"
    ],
    [
      "performan",
      "ce</w>"
    ],
    [
      "ir",
      "e</w>"
    ],
    [
      "al",
      "ong</w>"
    ],
    [
      "qu",
      "ality</w>"
    ],
    [
      "min",
      "d</w>"
    ],
    [
      "s",
      "ever"
    ],
    [
      "ce",
      "ss"
    ],
    [
      "st",
      "y"
    ],
    [
      "defin",
      "itely</w>"
    ],
    [
      "em",
      "p"
    ],
    [
      "to",
      "day</w>"
    ],
    [
      "u",
      "m</w>"
    ],
    [
      "ma",
      "in</w>"
    ],
    [
      "sh",
      "ows</w>"
    ],
    [
      "st",
      "ar</w>"
    ],
    [
      "cou",
      "ple</w>"
    ],
    [
      "f",
      "oo"
    ],
    [
      "d",
      "en"
    ],
    [
      "dial",
      "o"
    ],
    [
      "dr",
      "ink</w>"
    ],
    [
      "jo",
      "h"
    ],
    [
      "cin",
      "em"
    ],
    [
      "f",
      "ace</w>"
    ],
    [
      "sc",
      "i"
    ],
    [
      "i",
      "m</w>"
    ],
    [
      "al",
      "ready</w>"
    ],
    [
      "lat",
      "er</w>"
    ],
    [
      "me",
      "di"
    ],
    [
      "er",
      "i"
    ],
    [
      "ad",
      "d</w>"
    ],
    [
      "au",
      "di"
    ],
    [
      "p",
      "ed</w>"
    ],
    [
      "mu",
      "l"
    ],
    [
      "him",
      "self</w>"
    ],
    [
      "fa",
      "ther</w>"
    ],
    [
      "beau",
      "ti"
    ],
    [
      "favor",
      "ite</w>"
    ],
    [
      "t",
      "able</w>"
    ],
    [
      "w",
      "s</w>"
    ],
    [
      "simp",
      "ly</w>"
    ],
    [
      "m",
      "ur"
    ],
    [
      "enter",
      "tain"
    ],
    [
      "str",
      "ong</w>"
    ],
    [
      "speci",
      "al</w>"
    ],
    [
      "t",
      "it"
    ],
    [
      "t",
      "ell</w>"
    ],
    [
      "bo",
      "tt"
    ],
    [
      "ul",
      "t</w>"
    ],
    [
      "w",
      "ent</w>"
    ],
    [
      "en",
      "ded</w>"
    ],
    [
      "ol",
      "o"
    ],
    [
      "ta",
      "kes</w>"
    ],
    [
      "c",
      "tion</w>"
    ],
    [
      "rec",
      "ei"
    ],
    [
      "or",
      "y</w>"
    ],
    [
      "comple",
      "tely</w>"
    ],
    [
      "effec",
      "ts</w>"
    ],
    [
      "re",
      "st</w>"
    ],
    [
      "h",
      "on"
    ],
    [
      "it",
      "ter</w>"
    ],
    [
      "gra",
      "ph"
    ],
    [
      "ki",
      "ds</w>"
    ],
    [
      "pie",
      "ce</w>"
    ],
    [
      "s",
      "es</w>"
    ],
    [
      "cla",
      "ss"
    ],
    [
      "st",
      "re"
    ],
    [
      "hum",
      "an</w>"
    ],
    [
      "r",
      "un"
    ],
    [
      "p",
      "er</w>"
    ],
    [
      "li",
      "gh"
    ],
    [
      "as",
      "y</w>"
    ],
    [
      "for",
      "tun"
    ],
    [
      "un",
      "i"
    ],
    [
      "ir",
      "d</w>"
    ],
    [
      "or",
      "dered</w>"
    ],
    [
      "gu",
      "ess</w>"
    ],
    [
      "sch",
      "ool</w>"
    ],
    [
      "sear",
      "ch</w>"
    ],
    [
      "sen",
      "se</w>"
    ],
    [
      "ta",
      "in</w>"
    ],
    [
      "am",
      "p</w>"
    ],
    [
      "see",
      "ing</w>"
    ],
    [
      "t",
      "ook</w>"
    ],
    [
      "dar",
      "k</w>"
    ],
    [
      "b",
      "ed</w>"
    ],
    [
      "c",
      "al"
    ],
    [
      "h",
      "an"
    ],
    [
      "g",
      "er"
    ],
    [
      "proble",
      "m</w>"
    ],
    [
      "ke",
      "t</w>"
    ],
    [
      "+",
      "</w>"
    ],
    [
      "do",
      "ing</w>"
    ],
    [
      "ag",
      "o</w>"
    ],
    [
      "s",
      "le"
    ],
    [
      "m",
      "m"
    ],
    [
      "wan",
      "ted</w>"
    ],
    [
      "ch",
      "rist"
    ],
    [
      "hop",
      "e</w>"
    ],
    [
      "c",
      "amer"
    ],
    [
      "d",
      "ou"
    ],
    [
      "w",
      "ar</w>"
    ],
    [
      "c",
      "ri"
    ],
    [
      "de",
      "ad</w>"
    ],
    [
      "sever",
      "al</w>"
    ],
    [
      "in",
      "ed</w>"
    ],
    [
      "it",
      "u"
    ],
    [
      "s",
      "k"
    ],
    [
      "h",
      "ot</w>"
    ],
    [
      "br",
      "and</w>"
    ],
    [
      "ch",
      "o"
    ],
    [
      "ss",
      "ing</w>"
    ],
    [
      "p",
      "id</w>"
    ],
    [
      "d",
      "uring</w>"
    ],
    [
      "r",
      "om"
    ],
    [
      "il",
      "ity</w>"
    ],
    [
      "v",
      "al"
    ],
    [
      "is",
      "o"
    ],
    [
      "gi",
      "ven</w>"
    ],
    [
      "bel",
      "i"
    ],
    [
      "c",
      "l"
    ],
    [
      "pla",
      "ys</w>"
    ],
    [
      "w",
      "ood</w>"
    ],
    [
      "tast",
      "es</w>"
    ],
    [
      "il",
      "s</w>"
    ],
    [
      "ep",
      "iso"
    ],
    [
      "f",
      "an</w>"
    ],
    [
      "o",
      "thers</w>"
    ],
    [
      "itt",
      "en</w>"
    ],
    [
      "h",
      "ol"
    ],
    [
      "il",
      "i"
    ],
    [
      "ro",
      "ss</w>"
    ],
    [
      "b",
      "oo"
    ],
    [
      "c",
      "ouldn</w>"
    ],
    [
      "disappoin",
      "ted</w>"
    ],
    [
      "it",
      "ch"
    ],
    [
      "inv",
      "ol"
    ],
    [
      "ga",
      "ve</w>"
    ],
    [
      "e",
      "asy</w>"
    ],
    [
      "be",
      "gin"
    ],
    [
      "d",
      "an"
    ],
    [
      "se",
      "x"
    ],
    [
      "me",
      "an</w>"
    ],
    [
      "nat",
      "ur"
    ],
    [
      "st",
      "ra"
    ],
    [
      "lov",
      "ed</w>"
    ],
    [
      "scre",
      "en</w>"
    ],
    [
      "re",
      "member</w>"
    ],
    [
      "vi",
      "de"
    ],
    [
      "b",
      "an"
    ],
    [
      "pp",
      "ed</w>"
    ],
    [
      "po",
      "or</w>"
    ],
    [
      "0",
      "s</w>"
    ],
    [
      "beli",
      "ev"
    ],
    [
      "bo",
      "y</w>"
    ],
    [
      "watch",
      "ed</w>"
    ],
    [
      "tic",
      "ul"
    ],
    [
      "int",
      "el"
    ],
    [
      "v",
      "ar"
    ],
    [
      "l",
      "er</w>"
    ],
    [
      "in",
      "ing</w>"
    ],
    [
      "w",
      "ard</w>"
    ],
    [
      "f",
      "ic"
    ],
    [
      "a",
      "h</w>"
    ],
    [
      "bu",
      "r"
    ],
    [
      "lau",
      "gh"
    ],
    [
      "c",
      "at</w>"
    ],
    [
      "pp",
      "ing</w>"
    ],
    [
      "s",
      "il"
    ],
    [
      "b",
      "ri"
    ],
    [
      "as",
      "ked</w>"
    ],
    [
      "loc",
      "al</w>"
    ],
    [
      "it",
      "self</w>"
    ],
    [
      "ha",
      "ps</w>"
    ],
    [
      "de",
      "a"
    ],
    [
      "d",
      "in"
    ],
    [
      "b",
      "and</w>"
    ],
    [
      "k",
      "ers</w>"
    ],
    [
      "aw",
      "ful</w>"
    ],
    [
      "h",
      "in"
    ],
    [
      "ex",
      "tre"
    ],
    [
      "per",
      "haps</w>"
    ],
    [
      "ter",
      "rible</w>"
    ],
    [
      "ex",
      "am"
    ],
    [
      "pla",
      "ying</w>"
    ],
    [
      "an",
      "im"
    ],
    [
      "s",
      "ing"
    ],
    [
      "te",
      "ch"
    ],
    [
      "d",
      "v"
    ],
    [
      "in",
      "cre"
    ],
    [
      "absol",
      "u"
    ],
    [
      "v",
      "er</w>"
    ],
    [
      "sty",
      "le</w>"
    ],
    [
      "amaz",
      "ing</w>"
    ],
    [
      "tru",
      "ly</w>"
    ],
    [
      "com",
      "par"
    ],
    [
      "a",
      "ch</w>"
    ],
    [
      "sa",
      "ys</w>"
    ],
    [
      "sh",
      "ot</w>"
    ],
    [
      "fin",
      "e</w>"
    ],
    [
      "str",
      "u"
    ],
    [
      "li",
      "g"
    ],
    [
      "bas",
      "ed</w>"
    ],
    [
      "review",
      "s</w>"
    ],
    [
      "absolu",
      "tely</w>"
    ],
    [
      "i",
      "sh</w>"
    ],
    [
      "st",
      "e</w>"
    ],
    [
      "pos",
      "ed</w>"
    ],
    [
      "re",
      "view</w>"
    ],
    [
      "em",
      "ent</w>"
    ],
    [
      "stu",
      "pid</w>"
    ],
    [
      "wh",
      "ite</w>"
    ],
    [
      "li",
      "ve</w>"
    ],
    [
      "\u00e9",
      "</w>"
    ],
    [
      "c",
      "y</w>"
    ],
    [
      "ad",
      "v"
    ],
    [
      "re",
      "sul"
    ],
    [
      "con",
      "tain"
    ],
    [
      "p",
      "tion</w>"
    ],
    [
      "u",
      "al</w>"
    ],
    [
      "hor",
      "rible</w>"
    ],
    [
      "on",
      "d</w>"
    ],
    [
      "par",
      "ticul"
    ],
    [
      "beauti",
      "ful</w>"
    ],
    [
      "pl",
      "an"
    ],
    [
      "l",
      "and</w>"
    ],
    [
      "a",
      "st</w>"
    ],
    [
      "bud",
      "get</w>"
    ],
    [
      "n",
      "ov"
    ],
    [
      "ag",
      "s</w>"
    ],
    [
      "pos",
      "sible</w>"
    ],
    [
      "wi",
      "fe</w>"
    ],
    [
      "g",
      "la"
    ],
    [
      "t",
      "old</w>"
    ],
    [
      "call",
      "ed</w>"
    ],
    [
      "por",
      "t"
    ],
    [
      "su",
      "pp"
    ],
    [
      "shor",
      "t</w>"
    ],
    [
      "c",
      "op"
    ],
    [
      "ta",
      "king</w>"
    ],
    [
      "f",
      "ici"
    ],
    [
      "p",
      "lease</w>"
    ],
    [
      "sa",
      "ve</w>"
    ],
    [
      "c",
      "are</w>"
    ],
    [
      "un",
      "der</w>"
    ],
    [
      "wr",
      "itten</w>"
    ],
    [
      "g",
      "le</w>"
    ],
    [
      "s",
      "y</w>"
    ],
    [
      "pl",
      "ac"
    ],
    [
      "ev",
      "i"
    ],
    [
      "e",
      "g"
    ],
    [
      "bu",
      "l"
    ],
    [
      "americ",
      "an</w>"
    ],
    [
      "en",
      "ces</w>"
    ],
    [
      "joh",
      "n</w>"
    ],
    [
      "t",
      "t</w>"
    ],
    [
      "bor",
      "ing</w>"
    ],
    [
      "th",
      "inking</w>"
    ],
    [
      "g",
      "ame</w>"
    ],
    [
      "wi",
      "sh</w>"
    ],
    [
      "n",
      "e</w>"
    ],
    [
      "n",
      "on</w>"
    ],
    [
      "pur",
      "ch"
    ],
    [
      "fe",
      "at"
    ],
    [
      "gu",
      "ys</w>"
    ],
    [
      "bu",
      "il"
    ],
    [
      "on",
      "t</w>"
    ],
    [
      "li",
      "ked</w>"
    ],
    [
      "un",
      "fortun"
    ],
    [
      "o",
      "k</w>"
    ],
    [
      "st",
      "ars</w>"
    ],
    [
      "d",
      "ge</w>"
    ],
    [
      "t",
      "om"
    ],
    [
      "ow",
      "ed</w>"
    ],
    [
      "car",
      "e"
    ],
    [
      "n",
      "ame</w>"
    ],
    [
      "of",
      "ten</w>"
    ],
    [
      "di",
      "es</w>"
    ],
    [
      "th",
      "s</w>"
    ],
    [
      "gu",
      "l"
    ],
    [
      "com",
      "ing</w>"
    ],
    [
      "ch",
      "in"
    ],
    [
      "ser",
      "v"
    ],
    [
      "under",
      "stand</w>"
    ],
    [
      "ingredi",
      "ents</w>"
    ],
    [
      "fin",
      "ally</w>"
    ],
    [
      "z",
      "y</w>"
    ],
    [
      "dev",
      "el"
    ],
    [
      "et",
      "c</w>"
    ],
    [
      "be",
      "come</w>"
    ],
    [
      "t",
      "ar"
    ],
    [
      "experi",
      "ence</w>"
    ],
    [
      "s",
      "oun"
    ],
    [
      "e",
      "m</w>"
    ],
    [
      "star",
      "t</w>"
    ],
    [
      "o",
      "s</w>"
    ],
    [
      "b",
      "ab"
    ],
    [
      "n",
      "um"
    ],
    [
      "p",
      "le"
    ],
    [
      "d",
      "ate</w>"
    ],
    [
      "lo",
      "ts</w>"
    ],
    [
      "per",
      "son</w>"
    ],
    [
      "act",
      "re"
    ],
    [
      "wor",
      "ks</w>"
    ],
    [
      "wr",
      "iting</w>"
    ],
    [
      "vide",
      "o</w>"
    ],
    [
      "ch",
      "ange</w>"
    ],
    [
      "li",
      "sh</w>"
    ],
    [
      "m",
      "en</w>"
    ],
    [
      "ch",
      "ang"
    ],
    [
      "camer",
      "a</w>"
    ],
    [
      "m",
      "ed</w>"
    ],
    [
      "fa",
      "st</w>"
    ],
    [
      "p",
      "ul"
    ],
    [
      "ut",
      "e</w>"
    ],
    [
      "f",
      "er"
    ],
    [
      "h",
      "oll"
    ],
    [
      "de",
      "sp"
    ],
    [
      "pla",
      "in</w>"
    ],
    [
      "di",
      "st"
    ],
    [
      "sor",
      "t</w>"
    ],
    [
      "so",
      "ci"
    ],
    [
      "di",
      "e</w>"
    ],
    [
      "s",
      "l"
    ],
    [
      "b",
      "ot</w>"
    ],
    [
      "t",
      "on</w>"
    ],
    [
      "it",
      "ies</w>"
    ],
    [
      "spe",
      "c"
    ]
  ],
  "token2id": {
    "<pad>": 0,
    "<unk>": 1,
    "!": 2,
    "!</w>": 3,
    "\"": 4,
    "\"</w>": 5,
    "#": 6,
    "#</w>": 7,
    "$": 8,
    "$</w>": 9,
    "%": 10,
    "&": 11,
    "&</w>": 12,
    "'": 13,
    "'</w>": 14,
    "(": 15,
    "(</w>": 16,
    ")": 17,
    ")</w>": 18,
    "*": 19,
    "*</w>": 20,
    "+": 21,
    "+</w>": 22,
    ",": 23,
    ",</w>": 24,
    "-": 25,
    "-</w>": 26,
    ".": 27,
    ".</w>": 28,
    "/": 29,
    "/</w>": 30,
    "0": 31,
    "00</w>": 32,
    "0</w>": 33,
    "0s</w>": 34,
    "1": 35,
    "10</w>": 36,
    "19": 37,
    "1</w>": 38,
    "2": 39,
    "20": 40,
    "2</w>": 41,
    "3": 42,
    "3</w>": 43,
    "4": 44,
    "4</w>": 45,
    "5": 46,
    "5</w>": 47,
    "6": 48,
    "6</w>": 49,
    "7": 50,
    "7</w>": 51,
    "8": 52,
    "8</w>": 53,
    "9": 54,
    "9</w>": 55,
    ":": 56,
    ":</w>": 57,
    ";": 58,
    ";</w>": 59,
    "</w>": 60,
    "=": 61,
    ">": 62,
    "?": 63,
    "?</w>": 64,
    "@": 65,
    "@</w>": 66,
    "[": 67,
    "\\": 68,
    "\\</w>": 69,
    "]": 70,
    "^": 71,
    "_": 72,
    "`": 73,
    "a": 74,
    "a</w>": 75,
    "ab": 76,
    "able</w>": 77,
    "ably</w>": 78,
    "about</w>": 79,
    "absol": 80,
    "absolu": 81,
    "absolutely</w>": 82,
    "ac": 83,
    "ace</w>": 84,
    "ach": 85,
    "ach</w>": 86,
    "ack": 87,
    "ack</w>": 88,
    "act": 89,
    "act</w>": 90,
    "acting</w>": 91,
    "action</w>": 92,
    "actor</w>": 93,
    "actors</w>": 94,
    "actre": 95,
    "actually</w>": 96,
    "ad": 97,
    "ad</w>": 98,
    "add</w>": 99,
    "adv": 100,
    "af": 101,
    "after</w>": 102,
    "ag": 103,
    "again</w>": 104,
    "age</w>": 105,
    "ago</w>": 106,
    "ags</w>": 107,
    "ah</w>": 108,
    "ai</w>": 109,
    "ain</w>": 110,
    "ak</w>": 111,
    "al": 112,
    "al</w>": 113,
    "ale</w>": 114,
    "ali": 115,
    "ality</w>": 116,
    "all": 117,
    "all</w>": 118,
    "ally</w>": 119,
    "almost</w>": 120,
    "along</w>": 121,
    "already</w>": 122,
    "als</w>": 123,
    "also</w>": 124,
    "although</w>": 125,
    "always</w>": 126,
    "am": 127,
    "am</w>": 128,
    "ama": 129,
    "amaz": 130,
    "amazing</w>": 131,
    "amazon</w>": 132,
    "ame</w>": 133,
    "amer": 134,
    "americ": 135,
    "american</w>": 136,
    "amp</w>": 137,
    "an": 138,
    "an</w>": 139,
    "ance</w>": 140,
    "and": 141,
    "and</w>": 142,
    "ane</w>": 143,
    "ang": 144,
    "ange</w>": 145,
    "anim": 146,
    "another</w>": 147,
    "ans": 148,
    "ans</w>": 149,
    "ant</w>": 150,
    "any": 151,
    "any</w>": 152,
    "anyone</w>": 153,
    "anything</w>": 154,
    "ap": 155,
    "appe": 156,
    "ar": 157,
    "ar</w>": 158,
    "ard</w>": 159,
    "are</w>": 160,
    "arly</w>": 161,
    "around</w>": 162,
    "ars</w>": 163,
    "art</w>": 164,
    "arti": 165,
    "ary</w>": 166,
    "as": 167,
    "as</w>": 168,
    "ased</w>": 169,
    "asked</w>": 170,
    "ast</w>": 171,
    "asy</w>": 172,
    "at": 173,
    "at</w>": 174,
    "ate</w>": 175,
    "ated</w>": 176,
    "ately</w>": 177,
    "ates</w>": 178,
    "ati": 179,
    "ating</w>": 180,
    "ation</w>": 181,
    "ations</w>": 182,
    "ative</w>": 183,
    "ats</w>": 184,
    "att": 185,
    "au": 186,
    "audi": 187,
    "av": 188,
    "aw": 189,
    "away</w>": 190,
    "awful</w>": 191,
    "ay</w>": 192,
    "b": 193,
    "b</w>": 194,
    "ba": 195,
    "bab": 196,
    "back</w>": 197,
    "bad</w>": 198,
    "bag</w>": 199,
    "ban": 200,
    "band</w>": 201,
    "bar": 202,
    "bas": 203,
    "based</w>": 204,
    "be": 205,
    "be</w>": 206,
    "beau": 207,
    "beauti": 208,
    "beautiful</w>": 209,
    "because</w>": 210,
    "become</w>": 211,
    "bed</w>": 212,
    "been</w>": 213,
    "bef": 214,
    "before</w>": 215,
    "begin": 216,
    "being</w>": 217,
    "bel": 218,
    "beli": 219,
    "belie": 220,
    "believ": 221,
    "believe</w>": 222,
    "ber": 223,
    "ber</w>": 224,
    "best</w>": 225,
    "bet": 226,
    "better</w>": 227,
    "between</w>": 228,
    "bi": 229,
    "big</w>": 230,
    "bit</w>": 231,
    "bl": 232,
    "black</w>": 233,
    "ble</w>": 234,
    "bly</w>": 235,
    "bo": 236,
    "body</w>": 237,
    "boo": 238,
    "book</w>": 239,
    "bor": 240,
    "boring</w>": 241,
    "bot</w>": 242,
    "both</w>": 243,
    "bott": 244,
    "bought</w>": 245,
    "box</w>": 246,
    "boy</w>": 247,
    "br": 248,
    "bra": 249,
    "brand</w>": 250,
    "bre": 251,
    "brea": 252,
    "bri": 253,
    "bro": 254,
    "bs</w>": 255,
    "bu": 256,
    "bud": 257,
    "budget</w>": 258,
    "buil": 259,
    "bul": 260,
    "bur": 261,
    "but</w>": 262,
    "buy</w>": 263,
    "by</w>": 264,
    "c": 265,
    "c</w>": 266,
    "ca": 267,
    "cal": 268,
    "call": 269,
    "called</w>": 270,
    "came</w>": 271,
    "camer": 272,
    "camera</w>": 273,
    "can": 274,
    "can</w>": 275,
    "cap": 276,
    "car": 277,
    "care": 278,
    "care</w>": 279,
    "case</w>": 280,
    "cast</w>": 281,
    "cat</w>": 282,
    "cause</w>": 283,
    "ce": 284,
    "ce</w>": 285,
    "ced</w>": 286,
    "cent</w>": 287,
    "cer": 288,
    "ces</w>": 289,
    "cess": 290,
    "ch": 291,
    "ch</w>": 292,
    "cha": 293,
    "chang": 294,
    "change</w>": 295,
    "char": 296,
    "charac": 297,
    "charact": 298,
    "character</w>": 299,
    "characters</w>": 300,
    "chat": 301,
    "chatgpt</w>": 302,
    "che": 303,
    "chi": 304,
    "chil": 305,
    "chin": 306,
    "cho": 307,
    "choc": 308,
    "chocol": 309,
    "chocolate</w>": 310,
    "christ": 311,
    "ci": 312,
    "cin": 313,
    "cinem": 314,
    "ck</w>": 315,
    "cl": 316,
    "cla": 317,
    "class": 318,
    "cle": 319,
    "cli": 320,
    "clo": 321,
    "co": 322,
    "cof": 323,
    "coffe": 324,
    "coffee</w>": 325,
    "col": 326,
    "com": 327,
    "come": 328,
    "come</w>": 329,
    "comedy</w>": 330,
    "comes</w>": 331,
    "coming</w>": 332,
    "comm": 333,
    "comp": 334,
    "company</w>": 335,
    "compar": 336,
    "comple": 337,
    "completely</w>": 338,
    "con": 339,
    "consi": 340,
    "cont": 341,
    "contain": 342,
    "conv": 343,
    "coo": 344,
    "cop": 345,
    "cor": 346,
    "cou": 347,
    "could</w>": 348,
    "couldn</w>": 349,
    "coun": 350,
    "couple</w>": 351,
    "cour": 352,
    "course</w>": 353,
    "cr": 354,
    "cra": 355,
    "cre": 356,
    "cri": 357,
    "ct</w>": 358,
    "ction</w>": 359,
    "cu": 360,
    "cup</w>": 361,
    "cur": 362,
    "cy</w>": 363,
    "d": 364,
    "d</w>": 365,
    "da": 366,
    "da</w>": 367,
    "dan": 368,
    "dar": 369,
    "dark</w>": 370,
    "date</w>": 371,
    "day</w>": 372,
    "days</w>": 373,
    "dd": 374,
    "de": 375,
    "de</w>": 376,
    "dea": 377,
    "dead</w>": 378,
    "deci": 379,
    "ded</w>": 380,
    "defin": 381,
    "definitely</w>": 382,
    "del": 383,
    "deli": 384,
    "den": 385,
    "der": 386,
    "der</w>": 387,
    "dered</w>": 388,
    "des</w>": 389,
    "desp": 390,
    "dev": 391,
    "devel": 392,
    "dge</w>": 393,
    "di": 394,
    "dial": 395,
    "dialo": 396,
    "dic": 397,
    "did</w>": 398,
    "didn</w>": 399,
    "die</w>": 400,
    "dies</w>": 401,
    "diff": 402,
    "differ": 403,
    "different</w>": 404,
    "din": 405,
    "ding</w>": 406,
    "direc": 407,
    "director</w>": 408,
    "dis": 409,
    "disa": 410,
    "disap": 411,
    "disappoin": 412,
    "disappointed</w>": 413,
    "disc": 414,
    "dist": 415,
    "dly</w>": 416,
    "dn</w>": 417,
    "do": 418,
    "do</w>": 419,
    "doc": 420,
    "does": 421,
    "does</w>": 422,
    "doesn</w>": 423,
    "dog</w>": 424,
    "doing</w>": 425,
    "don</w>": 426,
    "done</w>": 427,
    "dou": 428,
    "down</w>": 429,
    "dr": 430,
    "dra": 431,
    "dram": 432,
    "dre": 433,
    "dri": 434,
    "drink</w>": 435,
    "ds</w>": 436,
    "du": 437,
    "during</w>": 438,
    "dv": 439,
    "dy</w>": 440,
    "e": 441,
    "e</w>": 442,
    "ea": 443,
    "each</w>": 444,
    "ear": 445,
    "easy</w>": 446,
    "eat</w>": 447,
    "ed": 448,
    "ed</w>": 449,
    "ef": 450,
    "effec": 451,
    "effects</w>": 452,
    "eg": 453,
    "ei": 454,
    "either</w>": 455,
    "el": 456,
    "el</w>": 457,
    "ell": 458,
    "ell</w>": 459,
    "els</w>": 460,
    "else</w>": 461,
    "ely</w>": 462,
    "em": 463,
    "em</w>": 464,
    "ement</w>": 465,
    "emp": 466,
    "en": 467,
    "en</w>": 468,
    "ence</w>": 469,
    "ences</w>": 470,
    "end": 471,
    "end</w>": 472,
    "ended</w>": 473,
    "ending</w>": 474,
    "ends</w>": 475,
    "eng": 476,
    "enjo": 477,
    "enjoy</w>": 478,
    "enough</w>": 479,
    "ent": 480,
    "ent</w>": 481,
    "enter": 482,
    "entertain": 483,
    "enti": 484,
    "ently</w>": 485,
    "ents</w>": 486,
    "ep": 487,
    "ep</w>": 488,
    "episo": 489,
    "er": 490,
    "er</w>": 491,
    "ere</w>": 492,
    "eri": 493,
    "ers</w>": 494,
    "es": 495,
    "es</w>": 496,
    "ese</w>": 497,
    "especially</w>": 498,
    "ess</w>": 499,
    "est": 500,
    "est</w>": 501,
    "et": 502,
    "et</w>": 503,
    "etc</w>": 504,
    "ev": 505,
    "even</w>": 506,
    "ever": 507,
    "ever</w>": 508,
    "every": 509,
    "every</w>": 510,
    "everyone</w>": 511,
    "everything</w>": 512,
    "evi": 513,
    "ex": 514,
    "exam": 515,
    "exc": 516,
    "exce": 517,
    "excell": 518,
    "excellent</w>": 519,
    "exp": 520,
    "expe": 521,
    "expec": 522,
    "experi": 523,
    "experience</w>": 524,
    "ext</w>": 525,
    "extre": 526,
    "ey</w>": 527,
    "f": 528,
    "f</w>": 529,
    "fa": 530,
    "face</w>": 531,
    "fact</w>": 532,
    "fam": 533,
    "family</w>": 534,
    "fan": 535,
    "fan</w>": 536,
    "far</w>": 537,
    "fast</w>": 538,
    "father</w>": 539,
    "fav": 540,
    "favor": 541,
    "favorite</w>": 542,
    "fe": 543,
    "fe</w>": 544,
    "feat": 545,
    "fec": 546,
    "fect</w>": 547,
    "feel</w>": 548,
    "fer": 549,
    "few</w>": 550,
    "ff": 551,
    "ff</w>": 552,
    "fi": 553,
    "fic": 554,
    "fici": 555,
    "fil": 556,
    "film</w>": 557,
    "films</w>": 558,
    "fin": 559,
    "finally</w>": 560,
    "find</w>": 561,
    "fine</w>": 562,
    "fir": 563,
    "first</w>": 564,
    "fl": 565,
    "fla": 566,
    "flav": 567,
    "flavor</w>": 568,
    "foll": 569,
    "foo": 570,
    "food</w>": 571,
    "for": 572,
    "for</w>": 573,
    "form": 574,
    "fortun": 575,
    "found</w>": 576,
    "fr": 577,
    "fre": 578,
    "free</w>": 579,
    "fri": 580,
    "friend</w>": 581,
    "friends</w>": 582,
    "from</w>": 583,
    "ft</w>": 584,
    "fu": 585,
    "ful": 586,
    "ful</w>": 587,
    "full</w>": 588,
    "fully</w>": 589,
    "fun": 590,
    "fun</w>": 591,
    "funny</w>": 592,
    "g": 593,
    "g</w>": 594,
    "ga": 595,
    "game</w>": 596,
    "gan": 597,
    "gar": 598,
    "gave</w>": 599,
    "ge": 600,
    "ge</w>": 601,
    "gen": 602,
    "gener": 603,
    "ger": 604,
    "ger</w>": 605,
    "get</w>": 606,
    "gets</w>": 607,
    "getting</w>": 608,
    "gg": 609,
    "gh": 610,
    "gh</w>": 611,
    "ght</w>": 612,
    "gi": 613,
    "gin": 614,
    "gir": 615,
    "girl</w>": 616,
    "give</w>": 617,
    "given</w>": 618,
    "gla": 619,
    "gle</w>": 620,
    "go": 621,
    "go</w>": 622,
    "goes</w>": 623,
    "going</w>": 624,
    "goo": 625,
    "good</w>": 626,
    "got</w>": 627,
    "gpt</w>": 628,
    "gr": 629,
    "gra": 630,
    "graph": 631,
    "gre": 632,
    "great</w>": 633,
    "gs</w>": 634,
    "gu": 635,
    "gue</w>": 636,
    "guess</w>": 637,
    "gul": 638,
    "guy</w>": 639,
    "guys</w>": 640,
    "gy</w>": 641,
    "h": 642,
    "h</w>": 643,
    "ha": 644,
    "had</w>": 645,
    "hal": 646,
    "half</w>": 647,
    "han": 648,
    "happ": 649,
    "happen": 650,
    "happy</w>": 651,
    "haps</w>": 652,
    "har": 653,
    "hard</w>": 654,
    "has</w>": 655,
    "have</w>": 656,
    "having</w>": 657,
    "he": 658,
    "he</w>": 659,
    "head</w>": 660,
    "heal": 661,
    "hel": 662,
    "help</w>": 663,
    "her": 664,
    "her</w>": 665,
    "here</w>": 666,
    "hi": 667,
    "high": 668,
    "high</w>": 669,
    "him": 670,
    "him</w>": 671,
    "himself</w>": 672,
    "hin": 673,
    "his</w>": 674,
    "ho": 675,
    "hol": 676,
    "holl": 677,
    "hom": 678,
    "home</w>": 679,
    "hon": 680,
    "hop": 681,
    "hope</w>": 682,
    "hor": 683,
    "horrible</w>": 684,
    "horror</w>": 685,
    "hot</w>": 686,
    "hou": 687,
    "house</w>": 688,
    "how": 689,
    "how</w>": 690,
    "however</w>": 691,
    "hu": 692,
    "hum": 693,
    "human</w>": 694,
    "i": 695,
    "i</w>": 696,
    "ic": 697,
    "ic</w>": 698,
    "ical</w>": 699,
    "ically</w>": 700,
    "ice</w>": 701,
    "ici": 702,
    "ick": 703,
    "ick</w>": 704,
    "ics</w>": 705,
    "id</w>": 706,
    "ide": 707,
    "idea</w>": 708,
    "ie": 709,
    "ies</w>": 710,
    "if</w>": 711,
    "ight</w>": 712,
    "il": 713,
    "il</w>": 714,
    "ile</w>": 715,
    "ili": 716,
    "ility</w>": 717,
    "ill": 718,
    "ill</w>": 719,
    "illi": 720,
    "ils</w>": 721,
    "ily</w>": 722,
    "im": 723,
    "im</w>": 724,
    "in": 725,
    "in</w>": 726,
    "inc": 727,
    "inclu": 728,
    "incre": 729,
    "ine</w>": 730,
    "ined</w>": 731,
    "ing": 732,
    "ing</w>": 733,
    "ingly</w>": 734,
    "ingre": 735,
    "ingredi": 736,
    "ingredients</w>": 737,
    "ings</w>": 738,
    "ining</w>": 739,
    "ink</w>": 740,
    "inking</w>": 741,
    "ins</w>": 742,
    "inste": 743,
    "instead</w>": 744,
    "int": 745,
    "intel": 746,
    "inter": 747,
    "interest": 748,
    "interesting</w>": 749,
    "into</w>": 750,
    "inv": 751,
    "invol": 752,
    "ion</w>": 753,
    "ious</w>": 754,
    "ir": 755,
    "ir</w>": 756,
    "ird</w>": 757,
    "ire</w>": 758,
    "is": 759,
    "is</w>": 760,
    "ish</w>": 761,
    "isn</w>": 762,
    "iso": 763,
    "it": 764,
    "it</w>": 765,
    "itch": 766,
    "ite</w>": 767,
    "ited</w>": 768,
    "itely</w>": 769,
    "iti": 770,
    "ities</w>": 771,
    "iting</w>": 772,
    "ition</w>": 773,
    "its</w>": 774,
    "itself</w>": 775,
    "itt": 776,
    "itten</w>": 777,
    "itter</w>": 778,
    "ittle</w>": 779,
    "itu": 780,
    "ity</w>": 781,
    "j": 782,
    "je": 783,
    "jo": 784,
    "job</w>": 785,
    "joh": 786,
    "john</w>": 787,
    "ju": 788,
    "just</w>": 789,
    "k": 790,
    "k</w>": 791,
    "ke": 792,
    "ke</w>": 793,
    "ked</w>": 794,
    "keep</w>": 795,
    "ken</w>": 796,
    "ker</w>": 797,
    "kers</w>": 798,
    "kes</w>": 799,
    "ket</w>": 800,
    "ki": 801,
    "kids</w>": 802,
    "kill": 803,
    "kin": 804,
    "kind</w>": 805,
    "king</w>": 806,
    "kn": 807,
    "know</w>": 808,
    "ks</w>": 809,
    "ky</w>": 810,
    "l": 811,
    "l</w>": 812,
    "la": 813,
    "lan": 814,
    "land</w>": 815,
    "lar": 816,
    "last</w>": 817,
    "lat": 818,
    "later</w>": 819,
    "lau": 820,
    "laugh": 821,
    "le": 822,
    "le</w>": 823,
    "lea": 824,
    "lear": 825,
    "lease</w>": 826,
    "least</w>": 827,
    "led</w>": 828,
    "left</w>": 829,
    "ler</w>": 830,
    "les</w>": 831,
    "less</w>": 832,
    "let</w>": 833,
    "li": 834,
    "life</w>": 835,
    "lig": 836,
    "ligh": 837,
    "light</w>": 838,
    "like</w>": 839,
    "liked</w>": 840,
    "lin": 841,
    "line</w>": 842,
    "ling</w>": 843,
    "lish</w>": 844,
    "little</w>": 845,
    "live</w>": 846,
    "ll</w>": 847,
    "lo": 848,
    "loc": 849,
    "local</w>": 850,
    "lon": 851,
    "long</w>": 852,
    "loo": 853,
    "look</w>": 854,
    "looking</w>": 855,
    "looks</w>": 856,
    "lot</w>": 857,
    "lots</w>": 858,
    "lov": 859,
    "love</w>": 860,
    "loved</w>": 861,
    "low</w>": 862,
    "ls</w>": 863,
    "lu": 864,
    "ly</w>": 865,
    "m": 866,
    "m</w>": 867,
    "ma": 868,
    "made</w>": 869,
    "mag": 870,
    "main</w>": 871,
    "make</w>": 872,
    "makes</w>": 873,
    "making</w>": 874,
    "man": 875,
    "man</w>": 876,
    "many</w>": 877,
    "mar": 878,
    "mat": 879,
    "may": 880,
    "may</w>": 881,
    "maybe</w>": 882,
    "me": 883,
    "me</w>": 884,
    "mean</w>": 885,
    "med</w>": 886,
    "medi": 887,
    "mem": 888,
    "member</w>": 889,
    "men": 890,
    "men</w>": 891,
    "ment</w>": 892,
    "mi": 893,
    "might</w>": 894,
    "mil": 895,
    "min": 896,
    "mind</w>": 897,
    "ming</w>": 898,
    "minut": 899,
    "minutes</w>": 900,
    "mm": 901,
    "mo": 902,
    "mom": 903,
    "mon": 904,
    "money</w>": 905,
    "mor": 906,
    "more</w>": 907,
    "most</w>": 908,
    "mov": 909,
    "movi": 910,
    "movie</w>": 911,
    "movies</w>": 912,
    "ms</w>": 913,
    "mu": 914,
    "much</w>": 915,
    "mul": 916,
    "mur": 917,
    "mus": 918,
    "music</w>": 919,
    "must</w>": 920,
    "my": 921,
    "my</w>": 922,
    "n": 923,
    "n</w>": 924,
    "na": 925,
    "na</w>": 926,
    "nam": 927,
    "name</w>": 928,
    "nat": 929,
    "natur": 930,
    "ne": 931,
    "ne</w>": 932,
    "ned</w>": 933,
    "nee": 934,
    "need</w>": 935,
    "ner</w>": 936,
    "ness</w>": 937,
    "never</w>": 938,
    "new</w>": 939,
    "next</w>": 940,
    "ney</w>": 941,
    "ni": 942,
    "nice</w>": 943,
    "night</w>": 944,
    "ning</w>": 945,
    "no": 946,
    "no</w>": 947,
    "non</w>": 948,
    "nor": 949,
    "not</w>": 950,
    "nothing</w>": 951,
    "nov": 952,
    "now</w>": 953,
    "ns</w>": 954,
    "nu": 955,
    "num": 956,
    "ny</w>": 957,
    "o": 958,
    "o</w>": 959,
    "ob": 960,
    "obvi": 961,
    "oc": 962,
    "of": 963,
    "of</w>": 964,
    "off": 965,
    "off</w>": 966,
    "often</w>": 967,
    "oh</w>": 968,
    "ok</w>": 969,
    "ol": 970,
    "old</w>": 971,
    "ole</w>": 972,
    "oll": 973,
    "olo": 974,
    "om": 975,
    "om</w>": 976,
    "on": 977,
    "on</w>": 978,
    "onal</w>": 979,
    "once</w>": 980,
    "ond</w>": 981,
    "one</w>": 982,
    "ones</w>": 983,
    "ong</w>": 984,
    "only</w>": 985,
    "ons</w>": 986,
    "ont</w>": 987,
    "oo": 988,
    "ood</w>": 989,
    "ook</w>": 990,
    "ool</w>": 991,
    "op": 992,
    "op</w>": 993,
    "open": 994,
    "openai</w>": 995,
    "or": 996,
    "or</w>": 997,
    "order</w>": 998,
    "ordered</w>": 999,
    "ore</w>": 1000,
    "ori": 1001,
    "origin": 1002,
    "original</w>": 1003,
    "ors</w>": 1004,
    "ory</w>": 1005,
    "os</w>": 1006,
    "ose</w>": 1007,
    "ot</w>": 1008,
    "other</w>": 1009,
    "others</w>": 1010,
    "ou": 1011,
    "ough": 1012,
    "ough</w>": 1013,
    "ought</w>": 1014,
    "oul": 1015,
    "ould</w>": 1016,
    "ouldn</w>": 1017,
    "oun": 1018,
    "ound</w>": 1019,
    "our": 1020,
    "our</w>": 1021,
    "ous": 1022,
    "ous</w>": 1023,
    "ously</w>": 1024,
    "out": 1025,
    "out</w>": 1026,
    "ov": 1027,
    "over": 1028,
    "over</w>": 1029,
    "ow": 1030,
    "ow</w>": 1031,
    "owed</w>": 1032,
    "owing</w>": 1033,
    "own</w>": 1034,
    "ows</w>": 1035,
    "p": 1036,
    "p</w>": 1037,
    "pa": 1038,
    "pac": 1039,
    "pack": 1040,
    "par": 1041,
    "part</w>": 1042,
    "particul": 1043,
    "pas": 1044,
    "pe": 1045,
    "ped</w>": 1046,
    "peop": 1047,
    "people</w>": 1048,
    "per": 1049,
    "per</w>": 1050,
    "perfect</w>": 1051,
    "perfor": 1052,
    "performan": 1053,
    "performance</w>": 1054,
    "perhaps</w>": 1055,
    "peri": 1056,
    "person</w>": 1057,
    "ph": 1058,
    "pi": 1059,
    "pic": 1060,
    "pid</w>": 1061,
    "pie": 1062,
    "piece</w>": 1063,
    "pl": 1064,
    "pla": 1065,
    "plac": 1066,
    "place</w>": 1067,
    "plain</w>": 1068,
    "plan": 1069,
    "play</w>": 1070,
    "played</w>": 1071,
    "playing</w>": 1072,
    "plays</w>": 1073,
    "ple": 1074,
    "ple</w>": 1075,
    "please</w>": 1076,
    "plot</w>": 1077,
    "po": 1078,
    "poin": 1079,
    "point</w>": 1080,
    "pol": 1081,
    "poor</w>": 1082,
    "pop": 1083,
    "por": 1084,
    "port": 1085,
    "pos": 1086,
    "posed</w>": 1087,
    "possible</w>": 1088,
    "pow": 1089,
    "pp": 1090,
    "pped</w>": 1091,
    "pping</w>": 1092,
    "pr": 1093,
    "pre": 1094,
    "pres": 1095,
    "pretty</w>": 1096,
    "pri": 1097,
    "price</w>": 1098,
    "pro": 1099,
    "prob": 1100,
    "probably</w>": 1101,
    "proble": 1102,
    "problem</w>": 1103,
    "produ": 1104,
    "produc": 1105,
    "product</w>": 1106,
    "prom": 1107,
    "prov": 1108,
    "ps</w>": 1109,
    "pt</w>": 1110,
    "ption</w>": 1111,
    "pu": 1112,
    "pul": 1113,
    "pur": 1114,
    "purch": 1115,
    "put</w>": 1116,
    "q": 1117,
    "qu": 1118,
    "quality</w>": 1119,
    "quest": 1120,
    "quite</w>": 1121,
    "r": 1122,
    "r</w>": 1123,
    "ra": 1124,
    "rather</w>": 1125,
    "re": 1126,
    "re</w>": 1127,
    "read": 1128,
    "read</w>": 1129,
    "ready</w>": 1130,
    "real</w>": 1131,
    "reali": 1132,
    "really</w>": 1133,
    "reas": 1134,
    "reason</w>": 1135,
    "rec": 1136,
    "recei": 1137,
    "recomm": 1138,
    "recommend</w>": 1139,
    "red</w>": 1140,
    "rel": 1141,
    "remember</w>": 1142,
    "res</w>": 1143,
    "rest</w>": 1144,
    "resul": 1145,
    "review": 1146,
    "review</w>": 1147,
    "reviews</w>": 1148,
    "ri": 1149,
    "right</w>": 1150,
    "rist": 1151,
    "ro": 1152,
    "role</w>": 1153,
    "rom": 1154,
    "ror</w>": 1155,
    "ross</w>": 1156,
    "ru": 1157,
    "run": 1158,
    "ry</w>": 1159,
    "s": 1160,
    "s</w>": 1161,
    "sa": 1162,
    "said</w>": 1163,
    "sal": 1164,
    "same</w>": 1165,
    "save</w>": 1166,
    "saw</w>": 1167,
    "say</w>": 1168,
    "says</w>": 1169,
    "sc": 1170,
    "scen": 1171,
    "scene</w>": 1172,
    "scenes</w>": 1173,
    "sch": 1174,
    "school</w>": 1175,
    "sci": 1176,
    "scre": 1177,
    "screen</w>": 1178,
    "scri": 1179,
    "script</w>": 1180,
    "se": 1181,
    "se</w>": 1182,
    "sear": 1183,
    "search</w>": 1184,
    "secon": 1185,
    "second</w>": 1186,
    "sed</w>": 1187,
    "see": 1188,
    "see</w>": 1189,
    "seeing</w>": 1190,
    "seem": 1191,
    "seem</w>": 1192,
    "seems</w>": 1193,
    "seen</w>": 1194,
    "sel": 1195,
    "self</w>": 1196,
    "sen": 1197,
    "sense</w>": 1198,
    "sequ": 1199,
    "ser": 1200,
    "series</w>": 1201,
    "serv": 1202,
    "ses</w>": 1203,
    "set</w>": 1204,
    "sever": 1205,
    "several</w>": 1206,
    "sex": 1207,
    "sh": 1208,
    "sh</w>": 1209,
    "she</w>": 1210,
    "shed</w>": 1211,
    "shi": 1212,
    "ship</w>": 1213,
    "shor": 1214,
    "short</w>": 1215,
    "shot</w>": 1216,
    "should</w>": 1217,
    "show</w>": 1218,
    "shows</w>": 1219,
    "si": 1220,
    "sible</w>": 1221,
    "side</w>": 1222,
    "sig": 1223,
    "sil": 1224,
    "sim": 1225,
    "simp": 1226,
    "simply</w>": 1227,
    "sin": 1228,
    "since</w>": 1229,
    "sing": 1230,
    "sing</w>": 1231,
    "sion</w>": 1232,
    "sive</w>": 1233,
    "sk": 1234,
    "sl": 1235,
    "sle": 1236,
    "sm": 1237,
    "small</w>": 1238,
    "sn": 1239,
    "so": 1240,
    "so</w>": 1241,
    "soci": 1242,
    "sol": 1243,
    "som": 1244,
    "some": 1245,
    "some</w>": 1246,
    "someone</w>": 1247,
    "something</w>": 1248,
    "son": 1249,
    "son</w>": 1250,
    "sor": 1251,
    "sort</w>": 1252,
    "soun": 1253,
    "sp": 1254,
    "spe": 1255,
    "spec": 1256,
    "speci": 1257,
    "special</w>": 1258,
    "specially</w>": 1259,
    "spo": 1260,
    "ss": 1261,
    "ss</w>": 1262,
    "ssed</w>": 1263,
    "ssing</w>": 1264,
    "st": 1265,
    "st</w>": 1266,
    "sta": 1267,
    "stan": 1268,
    "stand</w>": 1269,
    "star": 1270,
    "star</w>": 1271,
    "stars</w>": 1272,
    "start</w>": 1273,
    "ste": 1274,
    "ste</w>": 1275,
    "sted</w>": 1276,
    "ster": 1277,
    "ster</w>": 1278,
    "stic</w>": 1279,
    "still</w>": 1280,
    "sting</w>": 1281,
    "stor": 1282,
    "store</w>": 1283,
    "story</w>": 1284,
    "str": 1285,
    "stra": 1286,
    "stre": 1287,
    "strong</w>": 1288,
    "stru": 1289,
    "sts</w>": 1290,
    "stu": 1291,
    "stuff</w>": 1292,
    "stupid</w>": 1293,
    "sty": 1294,
    "style</w>": 1295,
    "su": 1296,
    "sub": 1297,
    "suc": 1298,
    "such</w>": 1299,
    "sug": 1300,
    "sugar</w>": 1301,
    "sul": 1302,
    "sup": 1303,
    "super": 1304,
    "supp": 1305,
    "sur": 1306,
    "sure</w>": 1307,
    "surpri": 1308,
    "swee": 1309,
    "sweet</w>": 1310,
    "sy": 1311,
    "sy</w>": 1312,
    "t": 1313,
    "t</w>": 1314,
    "ta": 1315,
    "table</w>": 1316,
    "tain": 1317,
    "tain</w>": 1318,
    "take</w>": 1319,
    "takes</w>": 1320,
    "taking</w>": 1321,
    "tal": 1322,
    "tar": 1323,
    "tast": 1324,
    "taste</w>": 1325,
    "tastes</w>": 1326,
    "te": 1327,
    "te</w>": 1328,
    "tea</w>": 1329,
    "tech": 1330,
    "ted</w>": 1331,
    "tell</w>": 1332,
    "tely</w>": 1333,
    "ten": 1334,
    "ten</w>": 1335,
    "ter": 1336,
    "ter</w>": 1337,
    "terrible</w>": 1338,
    "th": 1339,
    "th</w>": 1340,
    "than": 1341,
    "than</w>": 1342,
    "that</w>": 1343,
    "the": 1344,
    "the</w>": 1345,
    "their</w>": 1346,
    "them</w>": 1347,
    "then</w>": 1348,
    "ther": 1349,
    "ther</w>": 1350,
    "there</w>": 1351,
    "thers</w>": 1352,
    "these</w>": 1353,
    "they</w>": 1354,
    "thing</w>": 1355,
    "things</w>": 1356,
    "think</w>": 1357,
    "thinking</w>": 1358,
    "this</w>": 1359,
    "those</w>": 1360,
    "though</w>": 1361,
    "thought</w>": 1362,
    "thr": 1363,
    "thre": 1364,
    "three</w>": 1365,
    "through</w>": 1366,
    "ths</w>": 1367,
    "thy</w>": 1368,
    "ti": 1369,
    "tic": 1370,
    "tic</w>": 1371,
    "ticul": 1372,
    "til</w>": 1373,
    "tim": 1374,
    "time</w>": 1375,
    "times</w>": 1376,
    "ting</w>": 1377,
    "tion</w>": 1378,
    "tions</w>": 1379,
    "tit": 1380,
    "tive</w>": 1381,
    "tly</w>": 1382,
    "to": 1383,
    "to</w>": 1384,
    "today</w>": 1385,
    "toge": 1386,
    "together</w>": 1387,
    "told</w>": 1388,
    "tom": 1389,
    "ton</w>": 1390,
    "too</w>": 1391,
    "took</w>": 1392,
    "top</w>": 1393,
    "tor</w>": 1394,
    "tot": 1395,
    "tr": 1396,
    "tra": 1397,
    "tre": 1398,
    "tri": 1399,
    "tried</w>": 1400,
    "tru": 1401,
    "true</w>": 1402,
    "truly</w>": 1403,
    "try</w>": 1404,
    "trying</w>": 1405,
    "ts</w>": 1406,
    "tt": 1407,
    "tt</w>": 1408,
    "tting</w>": 1409,
    "tty</w>": 1410,
    "tu": 1411,
    "tun": 1412,
    "tur": 1413,
    "ture</w>": 1414,
    "turn</w>": 1415,
    "tv</w>": 1416,
    "tw": 1417,
    "two</w>": 1418,
    "ty</w>": 1419,
    "typ": 1420,
    "u": 1421,
    "u</w>": 1422,
    "ual</w>": 1423,
    "ually</w>": 1424,
    "ue</w>": 1425,
    "ul": 1426,
    "ult</w>": 1427,
    "um": 1428,
    "um</w>": 1429,
    "un": 1430,
    "under": 1431,
    "under</w>": 1432,
    "understand</w>": 1433,
    "unfortun": 1434,
    "uni": 1435,
    "until</w>": 1436,
    "up": 1437,
    "up</w>": 1438,
    "ur": 1439,
    "ure</w>": 1440,
    "uring</w>": 1441,
    "us": 1442,
    "us</w>": 1443,
    "use</w>": 1444,
    "used</w>": 1445,
    "using</w>": 1446,
    "usu": 1447,
    "ut": 1448,
    "ute</w>": 1449,
    "v": 1450,
    "v</w>": 1451,
    "val": 1452,
    "var": 1453,
    "ve": 1454,
    "ve</w>": 1455,
    "ved</w>": 1456,
    "ven</w>": 1457,
    "ver": 1458,
    "ver</w>": 1459,
    "version</w>": 1460,
    "very</w>": 1461,
    "ves</w>": 1462,
    "vi": 1463,
    "vide": 1464,
    "video</w>": 1465,
    "vie": 1466,
    "view": 1467,
    "view</w>": 1468,
    "ving</w>": 1469,
    "vo": 1470,
    "w": 1471,
    "w</w>": 1472,
    "wa": 1473,
    "wal": 1474,
    "wan": 1475,
    "want</w>": 1476,
    "wanted</w>": 1477,
    "war": 1478,
    "war</w>": 1479,
    "ward</w>": 1480,
    "was": 1481,
    "was</w>": 1482,
    "wasn</w>": 1483,
    "wat": 1484,
    "watch": 1485,
    "watch</w>": 1486,
    "watched</w>": 1487,
    "watching</w>": 1488,
    "water</w>": 1489,
    "way</w>": 1490,
    "ways</w>": 1491,
    "we": 1492,
    "we</w>": 1493,
    "wee": 1494,
    "ween</w>": 1495,
    "well</w>": 1496,
    "went</w>": 1497,
    "were</w>": 1498,
    "wh": 1499,
    "what</w>": 1500,
    "when</w>": 1501,
    "where</w>": 1502,
    "whi": 1503,
    "which</w>": 1504,
    "while</w>": 1505,
    "white</w>": 1506,
    "who</w>": 1507,
    "whole</w>": 1508,
    "why</w>": 1509,
    "wi": 1510,
    "wife</w>": 1511,
    "will</w>": 1512,
    "win": 1513,
    "wish</w>": 1514,
    "with": 1515,
    "with</w>": 1516,
    "without</w>": 1517,
    "wom": 1518,
    "woman</w>": 1519,
    "won": 1520,
    "won</w>": 1521,
    "wonder": 1522,
    "wonderful</w>": 1523,
    "wood</w>": 1524,
    "wor": 1525,
    "work</w>": 1526,
    "works</w>": 1527,
    "worl": 1528,
    "world</w>": 1529,
    "worst</w>": 1530,
    "worth</w>": 1531,
    "would</w>": 1532,
    "wr": 1533,
    "writ": 1534,
    "write</w>": 1535,
    "writing</w>": 1536,
    "written</w>": 1537,
    "wrong</w>": 1538,
    "ws</w>": 1539,
    "x": 1540,
    "x</w>": 1541,
    "y": 1542,
    "y</w>": 1543,
    "ye": 1544,
    "year</w>": 1545,
    "years</w>": 1546,
    "yed</w>": 1547,
    "yes</w>": 1548,
    "yet</w>": 1549,
    "ying</w>": 1550,
    "you": 1551,
    "you</w>": 1552,
    "youn": 1553,
    "young</w>": 1554,
    "your</w>": 1555,
    "yp": 1556,
    "ys</w>": 1557,
    "z": 1558,
    "z</w>": 1559,
    "ze</w>": 1560,
    "zed</w>": 1561,
    "zy</w>": 1562,
    "{": 1563,
    "|": 1564,
    "}": 1565,
    "~": 1566,
    "\u0080": 1567,
    "\u0084": 1568,
    "\u0087": 1569,
    "\u0088": 1570,
    "\u008c": 1571,
    "\u0091": 1572,
    "\u0093": 1573,
    "\u0095": 1574,
    "\u0096": 1575,
    "\u0097": 1576,
    "\u0098": 1577,
    "\u0099": 1578,
    "\u00a3": 1579,
    "\u00a5": 1580,
    "\u00a6": 1581,
    "\u00a7": 1582,
    "\u00a8": 1583,
    "\u00a9": 1584,
    "\u00aa": 1585,
    "\u00ab": 1586,
    "\u00ac": 1587,
    "\u00ae": 1588,
    "\u00af": 1589,
    "\u00b0": 1590,
    "\u00b1": 1591,
    "\u00b4": 1592,
    "\u00b5": 1593,
    "\u00b6": 1594,
    "\u00b9": 1595,
    "\u00bb": 1596,
    "\u00bc": 1597,
    "\u00bd": 1598,
    "\u00bf": 1599,
    "\u00d7": 1600,
    "\u00e1": 1601,
    "\u00e2": 1602,
    "\u00e3": 1603,
    "\u00e4": 1604,
    "\u00e6": 1605,
    "\u00e7": 1606,
    "\u00e8": 1607,
    "\u00e9": 1608,
    "\u00e9</w>": 1609,
    "\u00ed": 1610,
    "\u00ee": 1611,
    "\u00ef": 1612,
    "\u00f0": 1613,
    "\u00f1": 1614,
    "\u00f3": 1615,
    "\u00f4": 1616,
    "\u00f6": 1617,
    "\u00f8": 1618,
    "\u00f9": 1619,
    "\u00fa": 1620,
    "\u00fb": 1621,
    "\u00fc": 1622,
    "\u00fd": 1623,
    "\u00fe": 1624,
    "\u03c0": 1625,
    "\u200d": 1626,
    "\u2013": 1627,
    "\u2014": 1628,
    "\u2018": 1629,
    "\u2019": 1630,
    "\u2019</w>": 1631,
    "\u201c": 1632,
    "\u201d": 1633,
    "\u201e": 1634,
    "\u2022": 1635,
    "\u2026": 1636,
    "\u20ac": 1637,
    "\u2120": 1638,
    "\u2122": 1639,
    "\u2194": 1640,
    "\u2620": 1641,
    "\u263a": 1642,
    "\u2640": 1643,
    "\u2642": 1644,
    "\u2665": 1645,
    "\u26e9": 1646,
    "\u2705": 1647,
    "\u270b": 1648,
    "\u270f": 1649,
    "\u2728": 1650,
    "\u2764": 1651,
    "\u27a1": 1652,
    "\u2b07": 1653,
    "\u2b50": 1654,
    "\u30b0": 1655,
    "\u30d7": 1656,
    "\u30df": 1657,
    "\u30e9": 1658,
    "\u30ed": 1659,
    "\u30f3": 1660,
    "\u4e9a": 1661,
    "\u4f53": 1662,
    "\u535a": 1663,
    "\u80b2": 1664,
    "\ufe0f": 1665,
    "\uff01": 1666,
    "\ud83c\uddeb": 1667,
    "\ud83c\uddee": 1668,
    "\ud83c\uddf0": 1669,
    "\ud83c\uddf3": 1670,
    "\ud83c\uddf5": 1671,
    "\ud83c\uddf7": 1672,
    "\ud83c\uddfa": 1673,
    "\ud83c\udf10": 1674,
    "\ud83c\udf81": 1675,
    "\ud83c\udf84": 1676,
    "\ud83c\udf85": 1677,
    "\ud83c\udf89": 1678,
    "\ud83c\udf99": 1679,
    "\ud83c\udfa5": 1680,
    "\ud83c\udfb6": 1681,
    "\ud83c\udfb9": 1682,
    "\ud83c\udfc8": 1683,
    "\ud83c\udfce": 1684,
    "\ud83c\udfdd": 1685,
    "\ud83c\udff4": 1686,
    "\ud83c\udffb": 1687,
    "\ud83c\udffc": 1688,
    "\ud83c\udffd": 1689,
    "\ud83c\udffe": 1690,
    "\ud83c\udfff": 1691,
    "\ud83d\udc3c": 1692,
    "\ud83d\udc40": 1693,
    "\ud83d\udc41": 1694,
    "\ud83d\udc47": 1695,
    "\ud83d\udc49": 1696,
    "\ud83d\udc4c": 1697,
    "\ud83d\udc4d": 1698,
    "\ud83d\udc4f": 1699,
    "\ud83d\udc55": 1700,
    "\ud83d\udc68": 1701,
    "\ud83d\udc80": 1702,
    "\ud83d\udc97": 1703,
    "\ud83d\udca5": 1704,
    "\ud83d\udca9": 1705,
    "\ud83d\udcaa": 1706,
    "\ud83d\udcab": 1707,
    "\ud83d\udcac": 1708,
    "\ud83d\udcad": 1709,
    "\ud83d\udcaf": 1710,
    "\ud83d\udcb5": 1711,
    "\ud83d\udcbb": 1712,
    "\ud83d\udcda": 1713,
    "\ud83d\udcdc": 1714,
    "\ud83d\udcec": 1715,
    "\ud83d\udcf0": 1716,
    "\ud83d\udcfd": 1717,
    "\ud83d\udd17": 1718,
    "\ud83d\udd25": 1719,
    "\ud83d\udd2d": 1720,
    "\ud83d\udd57": 1721,
    "\ud83d\udd7a": 1722,
    "\ud83d\udde8": 1723,
    "\ud83d\ude00": 1724,
    "\ud83d\ude01": 1725,
    "\ud83d\ude02": 1726,
    "\ud83d\ude03": 1727,
    "\ud83d\ude04": 1728,
    "\ud83d\ude05": 1729,
    "\ud83d\ude06": 1730,
    "\ud83d\ude09": 1731,
    "\ud83d\ude0b": 1732,
    "\ud83d\ude0d": 1733,
    "\ud83d\ude0e": 1734,
    "\ud83d\ude10": 1735,
    "\ud83d\ude11": 1736,
    "\ud83d\ude15": 1737,
    "\ud83d\ude1b": 1738,
    "\ud83d\ude1c": 1739,
    "\ud83d\ude1e": 1740,
    "\ud83d\ude24": 1741,
    "\ud83d\ude2b": 1742,
    "\ud83d\ude2c": 1743,
    "\ud83d\ude2d": 1744,
    "\ud83d\ude2f": 1745,
    "\ud83d\ude31": 1746,
    "\ud83d\ude33": 1747,
    "\ud83d\ude34": 1748,
    "\ud83d\ude3f": 1749,
    "\ud83d\ude42": 1750,
    "\ud83d\ude43": 1751,
    "\ud83d\ude44": 1752,
    "\ud83d\ude4c": 1753,
    "\ud83d\ude4f": 1754,
    "\ud83d\ude80": 1755,
    "\ud83d\udee0": 1756,
    "\ud83e\udd11": 1757,
    "\ud83e\udd14": 1758,
    "\ud83e\udd16": 1759,
    "\ud83e\udd17": 1760,
    "\ud83e\udd19": 1761,
    "\ud83e\udd1d": 1762,
    "\ud83e\udd1e": 1763,
    "\ud83e\udd1f": 1764,
    "\ud83e\udd21": 1765,
    "\ud83e\udd23": 1766,
    "\ud83e\udd26": 1767,
    "\ud83e\udd29": 1768,
    "\ud83e\udd2f": 1769,
    "\ud83e\udd37": 1770,
    "\ud83e\udd72": 1771,
    "\ud83e\udd86": 1772,
    "\ud83e\uddd1": 1773,
    "\ud83e\uddd7": 1774,
    "\ud83e\uddf5": 1775,
    "\ud83e\ude82": 1776,
    "\ud83e\udef6": 1777,
    "\udb40\udc62": 1778,
    "\udb40\udc65": 1779,
    "\udb40\udc67": 1780,
    "\udb40\udc6e": 1781,
    "\udb40\udc7f": 1782
  }
}